#include "model_data.h"



const unsigned char fall_detection_model_tflite[] = {
  0x1c, 0x00, 0x00, 0x00, 0x54, 0x46, 0x4c, 0x33, 0x14, 0x00, 0x20, 0x00,
  0x1c, 0x00, 0x18, 0x00, 0x14, 0x00, 0x10, 0x00, 0x0c, 0x00, 0x00, 0x00,
  0x08, 0x00, 0x04, 0x00, 0x14, 0x00, 0x00, 0x00, 0x1c, 0x00, 0x00, 0x00,
  0x88, 0x00, 0x00, 0x00, 0x08, 0x01, 0x00, 0x00, 0x74, 0x13, 0x00, 0x00,
  0x84, 0x13, 0x00, 0x00, 0x2c, 0x23, 0x00, 0x00, 0x03, 0x00, 0x00, 0x00,
  0x01, 0x00, 0x00, 0x00, 0x04, 0x00, 0x00, 0x00, 0x3e, 0xec, 0xff, 0xff,
  0x0c, 0x00, 0x00, 0x00, 0x1c, 0x00, 0x00, 0x00, 0x3c, 0x00, 0x00, 0x00,
  0x0f, 0x00, 0x00, 0x00, 0x73, 0x65, 0x72, 0x76, 0x69, 0x6e, 0x67, 0x5f,
  0x64, 0x65, 0x66, 0x61, 0x75, 0x6c, 0x74, 0x00, 0x01, 0x00, 0x00, 0x00,
  0x04, 0x00, 0x00, 0x00, 0x6c, 0xff, 0xff, 0xff, 0x0a, 0x00, 0x00, 0x00,
  0x04, 0x00, 0x00, 0x00, 0x08, 0x00, 0x00, 0x00, 0x6f, 0x75, 0x74, 0x70,
  0x75, 0x74, 0x5f, 0x30, 0x00, 0x00, 0x00, 0x00, 0x01, 0x00, 0x00, 0x00,
  0x04, 0x00, 0x00, 0x00, 0x12, 0xed, 0xff, 0xff, 0x04, 0x00, 0x00, 0x00,
  0x0b, 0x00, 0x00, 0x00, 0x69, 0x6e, 0x70, 0x75, 0x74, 0x5f, 0x6c, 0x61,
  0x79, 0x65, 0x72, 0x00, 0x03, 0x00, 0x00, 0x00, 0x5c, 0x00, 0x00, 0x00,
  0x2c, 0x00, 0x00, 0x00, 0x04, 0x00, 0x00, 0x00, 0xb8, 0xff, 0xff, 0xff,
  0x0e, 0x00, 0x00, 0x00, 0x04, 0x00, 0x00, 0x00, 0x13, 0x00, 0x00, 0x00,
  0x43, 0x4f, 0x4e, 0x56, 0x45, 0x52, 0x53, 0x49, 0x4f, 0x4e, 0x5f, 0x4d,
  0x45, 0x54, 0x41, 0x44, 0x41, 0x54, 0x41, 0x00, 0xdc, 0xff, 0xff, 0xff,
  0x0d, 0x00, 0x00, 0x00, 0x04, 0x00, 0x00, 0x00, 0x13, 0x00, 0x00, 0x00,
  0x6d, 0x69, 0x6e, 0x5f, 0x72, 0x75, 0x6e, 0x74, 0x69, 0x6d, 0x65, 0x5f,
  0x76, 0x65, 0x72, 0x73, 0x69, 0x6f, 0x6e, 0x00, 0x08, 0x00, 0x0c, 0x00,
  0x08, 0x00, 0x04, 0x00, 0x08, 0x00, 0x00, 0x00, 0x0c, 0x00, 0x00, 0x00,
  0x04, 0x00, 0x00, 0x00, 0x13, 0x00, 0x00, 0x00, 0x6d, 0x69, 0x6e, 0x5f,
  0x72, 0x75, 0x6e, 0x74, 0x69, 0x6d, 0x65, 0x5f, 0x76, 0x65, 0x72, 0x73,
  0x69, 0x6f, 0x6e, 0x00, 0x0f, 0x00, 0x00, 0x00, 0x68, 0x12, 0x00, 0x00,
  0x60, 0x12, 0x00, 0x00, 0x4c, 0x12, 0x00, 0x00, 0x14, 0x12, 0x00, 0x00,
  0x84, 0x11, 0x00, 0x00, 0x74, 0x09, 0x00, 0x00, 0x64, 0x08, 0x00, 0x00,
  0xd4, 0x00, 0x00, 0x00, 0xcc, 0x00, 0x00, 0x00, 0xc4, 0x00, 0x00, 0x00,
  0xbc, 0x00, 0x00, 0x00, 0xb4, 0x00, 0x00, 0x00, 0x94, 0x00, 0x00, 0x00,
  0x74, 0x00, 0x00, 0x00, 0x04, 0x00, 0x00, 0x00, 0xee, 0xed, 0xff, 0xff,
  0x04, 0x00, 0x00, 0x00, 0x60, 0x00, 0x00, 0x00, 0x0c, 0x00, 0x00, 0x00,
  0x08, 0x00, 0x0e, 0x00, 0x08, 0x00, 0x04, 0x00, 0x08, 0x00, 0x00, 0x00,
  0x10, 0x00, 0x00, 0x00, 0x28, 0x00, 0x00, 0x00, 0x00, 0x00, 0x06, 0x00,
  0x08, 0x00, 0x04, 0x00, 0x06, 0x00, 0x00, 0x00, 0x04, 0x00, 0x00, 0x00,
  0x01, 0x00, 0x00, 0x00, 0xeb, 0x03, 0x00, 0x00, 0x0c, 0x00, 0x18, 0x00,
  0x14, 0x00, 0x10, 0x00, 0x0c, 0x00, 0x04, 0x00, 0x0c, 0x00, 0x00, 0x00,
  0x39, 0xf6, 0x25, 0x5f, 0xde, 0x59, 0x65, 0xd1, 0x02, 0x00, 0x00, 0x00,
  0x02, 0x00, 0x00, 0x00, 0x04, 0x00, 0x00, 0x00, 0x06, 0x00, 0x00, 0x00,
  0x32, 0x2e, 0x31, 0x38, 0x2e, 0x30, 0x00, 0x00, 0x5a, 0xee, 0xff, 0xff,
  0x04, 0x00, 0x00, 0x00, 0x10, 0x00, 0x00, 0x00, 0x00, 0x00, 0x00, 0x00,
  0x00, 0x00, 0x00, 0x00, 0x00, 0x00, 0x00, 0x00, 0x00, 0x00, 0x00, 0x00,
  0x76, 0xee, 0xff, 0xff, 0x04, 0x00, 0x00, 0x00, 0x10, 0x00, 0x00, 0x00,
  0x31, 0x2e, 0x31, 0x34, 0x2e, 0x30, 0x00, 0x00, 0x00, 0x00, 0x00, 0x00,
  0x00, 0x00, 0x00, 0x00, 0xd0, 0xed, 0xff, 0xff, 0xd4, 0xed, 0xff, 0xff,
  0xd8, 0xed, 0xff, 0xff, 0xdc, 0xed, 0xff, 0xff, 0xa2, 0xee, 0xff, 0xff,
  0x04, 0x00, 0x00, 0x00, 0x80, 0x07, 0x00, 0x00, 0xec, 0x25, 0x4d, 0x0a,
  0x02, 0x09, 0x5a, 0xc0, 0xa6, 0x0b, 0x3f, 0xf5, 0xf1, 0x9c, 0x29, 0x2c,
  0xb5, 0x76, 0x7f, 0xa2, 0xfb, 0xf9, 0x1f, 0xb4, 0xdd, 0xd8, 0xe5, 0xc8,
  0xd9, 0x1d, 0x18, 0x10, 0x16, 0xf1, 0x36, 0xe7, 0x16, 0xdd, 0xf0, 0x24,
  0xcc, 0x30, 0xfc, 0x6b, 0x23, 0x46, 0xf6, 0x48, 0x43, 0x72, 0x3a, 0xe9,
  0x2c, 0xf6, 0x0d, 0x4f, 0xf6, 0x7f, 0xc3, 0x46, 0xe9, 0xcc, 0xfb, 0xb3,
  0x1b, 0xf0, 0x2b, 0xf2, 0xf3, 0x13, 0x03, 0x02, 0x06, 0x16, 0xcc, 0xe2,
  0xf7, 0x0e, 0x0b, 0xd5, 0xc1, 0xee, 0x1e, 0xf4, 0xe7, 0x2e, 0x26, 0x81,
  0x0b, 0x30, 0xec, 0x3b, 0x17, 0x1f, 0x0f, 0x68, 0xf5, 0x19, 0xcd, 0x20,
  0xdb, 0x17, 0xb8, 0xc6, 0x3e, 0x20, 0xf7, 0x27, 0xe7, 0x51, 0x05, 0xea,
  0x41, 0x81, 0x33, 0xa2, 0xcd, 0xe5, 0xc7, 0xf6, 0x2a, 0x04, 0x0c, 0x10,
  0x26, 0xdd, 0x24, 0x02, 0x4c, 0x0e, 0xff, 0x26, 0x7f, 0x1c, 0x0b, 0x0a,
  0x09, 0xf3, 0xd5, 0x34, 0x43, 0x2d, 0xe2, 0x55, 0x33, 0x5f, 0xe5, 0xd7,
  0x71, 0xa0, 0x00, 0x14, 0x02, 0x14, 0xef, 0x22, 0x16, 0xfc, 0xea, 0x18,
  0x00, 0x10, 0xf9, 0xe9, 0x0a, 0xf5, 0xef, 0x0b, 0xf1, 0x08, 0x11, 0x07,
  0x29, 0x81, 0xe5, 0xa0, 0xfd, 0xdc, 0xd6, 0xf8, 0x1e, 0x1b, 0x0c, 0x3a,
  0xa1, 0x47, 0x0e, 0x27, 0xee, 0x1e, 0x31, 0x07, 0xc1, 0x8a, 0xc9, 0xa6,
  0x22, 0x19, 0xe6, 0x90, 0xe3, 0xe9, 0x0e, 0x17, 0xca, 0x28, 0x69, 0x12,
  0x81, 0xe4, 0xf4, 0x08, 0x0c, 0xc4, 0x4f, 0xc7, 0x2b, 0x0c, 0x18, 0x09,
  0x27, 0xe3, 0x4f, 0x4e, 0xde, 0xe1, 0x0c, 0x15, 0xdd, 0xc0, 0xc4, 0x01,
  0x3d, 0x49, 0x21, 0x19, 0x2b, 0x81, 0xf4, 0x0e, 0xfd, 0x34, 0x31, 0xfa,
  0x10, 0xb5, 0x57, 0xe9, 0x99, 0xda, 0x26, 0x06, 0xfc, 0xb0, 0x27, 0x12,
  0xf0, 0x3b, 0x7f, 0xa7, 0x30, 0xd3, 0xfb, 0x6a, 0xc0, 0x65, 0xef, 0x29,
  0xea, 0xc2, 0x03, 0x0c, 0xc5, 0x2f, 0xd1, 0xdf, 0xee, 0xb1, 0x1c, 0xde,
  0xf5, 0xf1, 0x13, 0xf6, 0x1b, 0xff, 0x16, 0x2a, 0x33, 0xf2, 0xec, 0xf9,
  0x25, 0x60, 0x08, 0x7f, 0xf4, 0x53, 0x1f, 0x1c, 0xd7, 0xda, 0x4d, 0xcc,
  0xc2, 0xa7, 0x2b, 0xe8, 0x9d, 0xd9, 0xf6, 0xc4, 0x26, 0xbb, 0xf2, 0xdc,
  0xd2, 0x0e, 0xf9, 0x3b, 0x12, 0x6a, 0xcf, 0x2e, 0xeb, 0x46, 0xf0, 0x81,
  0xec, 0xcd, 0x0e, 0x0b, 0xd7, 0xd9, 0x6d, 0xfc, 0xfc, 0x2a, 0xfc, 0xf3,
  0x2b, 0x1f, 0x16, 0x36, 0xe5, 0x0a, 0x03, 0xd4, 0xe1, 0xda, 0xbd, 0x17,
  0x1e, 0x7e, 0x02, 0x42, 0x25, 0x81, 0x1d, 0x21, 0x51, 0xfd, 0x3a, 0x7f,
  0x28, 0x6e, 0x32, 0xea, 0x44, 0xc0, 0x23, 0xec, 0x13, 0xd5, 0xe9, 0x6c,
  0x0c, 0x6a, 0x22, 0x39, 0x05, 0x45, 0xcf, 0x5f, 0xef, 0x10, 0xc4, 0x75,
  0x1a, 0xd9, 0xd2, 0xd9, 0x70, 0xc2, 0x52, 0x9f, 0xf6, 0x09, 0xeb, 0x0c,
  0xe1, 0x09, 0x04, 0xf8, 0x0f, 0x10, 0xea, 0x26, 0x32, 0x0a, 0xfe, 0x16,
  0xd4, 0x61, 0xf5, 0x4b, 0x81, 0xcd, 0x14, 0xd1, 0xe7, 0x01, 0x11, 0xd7,
  0x7f, 0xc1, 0xe1, 0xed, 0xf6, 0x07, 0x1f, 0xf2, 0x12, 0xfb, 0xfa, 0x13,
  0x0e, 0xed, 0xda, 0xd2, 0xef, 0x06, 0x27, 0x2f, 0xf2, 0x23, 0xab, 0xe4,
  0xec, 0x17, 0x2c, 0xef, 0xfa, 0x44, 0x10, 0xfd, 0xdd, 0xfe, 0x0d, 0xef,
  0x12, 0x04, 0x31, 0xfe, 0xe8, 0x20, 0x25, 0x19, 0xf7, 0x08, 0xef, 0x22,
  0xd8, 0xff, 0x46, 0x4a, 0xdb, 0x7f, 0x1c, 0x0c, 0x3a, 0xff, 0x7f, 0xe0,
  0x3c, 0x8f, 0x03, 0xb9, 0x28, 0xd4, 0x0d, 0x26, 0xd8, 0x23, 0xee, 0xe3,
  0x0f, 0x51, 0x10, 0x09, 0x17, 0x32, 0xbc, 0x42, 0x00, 0x26, 0xca, 0x92,
  0xe2, 0xd9, 0x13, 0xe3, 0xc0, 0xff, 0x7f, 0xe0, 0x11, 0x36, 0xce, 0xf8,
  0x2e, 0xe4, 0x39, 0xfd, 0xff, 0x07, 0x09, 0xc8, 0xd1, 0xb9, 0x14, 0x2d,
  0x2a, 0x55, 0x1c, 0x44, 0xd0, 0xef, 0x04, 0x1f, 0xd0, 0xf7, 0x3b, 0xc3,
  0xec, 0xda, 0x34, 0xdd, 0xa6, 0x32, 0xb7, 0xc7, 0x31, 0xa2, 0xd9, 0xee,
  0x14, 0xf4, 0x1d, 0xf2, 0xe1, 0x5a, 0xbb, 0x2d, 0x20, 0x34, 0x10, 0x81,
  0x1d, 0x1b, 0xf0, 0x34, 0xee, 0x22, 0xd0, 0x51, 0xf9, 0xea, 0x2c, 0xc9,
  0x0d, 0xff, 0x0c, 0xe2, 0x1d, 0xe7, 0x0c, 0x45, 0x24, 0x0e, 0x3a, 0xa9,
  0x49, 0xc8, 0x41, 0xbd, 0x81, 0xec, 0x00, 0xe7, 0xed, 0x18, 0xbd, 0xf2,
  0xb7, 0x60, 0xdd, 0x04, 0xff, 0xde, 0x07, 0x24, 0x12, 0xb0, 0x27, 0x1a,
  0xee, 0x17, 0x15, 0x28, 0xd4, 0x09, 0x1c, 0x97, 0xe0, 0x87, 0x7f, 0x1f,
  0xef, 0xeb, 0x35, 0x2a, 0x20, 0x21, 0x87, 0x60, 0x1d, 0xdb, 0x0f, 0xf3,
  0x39, 0x2a, 0x2a, 0xaf, 0xf8, 0xda, 0x44, 0x28, 0x53, 0x35, 0xd1, 0x17,
  0xfb, 0x81, 0x25, 0xbb, 0x75, 0x33, 0xa5, 0xcb, 0x37, 0x41, 0x0f, 0x3a,
  0x31, 0xeb, 0xfb, 0xc7, 0xc0, 0x27, 0x41, 0x21, 0x02, 0x04, 0x0c, 0xe2,
  0xe0, 0x5e, 0x52, 0x91, 0x31, 0xe6, 0xf2, 0x7f, 0xed, 0x57, 0xe6, 0x40,
  0xb9, 0xda, 0x21, 0xdf, 0x1f, 0x23, 0xeb, 0x42, 0xf3, 0x06, 0x07, 0xdf,
  0xf9, 0x09, 0xce, 0x0c, 0xef, 0x0d, 0x0c, 0xec, 0xe3, 0x15, 0x40, 0xf4,
  0x1d, 0x81, 0x0f, 0x81, 0x01, 0xd6, 0xd7, 0x09, 0x08, 0x25, 0x30, 0xef,
  0xfc, 0x2a, 0xec, 0x2f, 0x03, 0xfa, 0x06, 0xf9, 0xd8, 0xe6, 0x1f, 0xf7,
  0xe9, 0xf9, 0x17, 0x4b, 0x16, 0x10, 0x26, 0x89, 0xfd, 0x81, 0xed, 0xe5,
  0xc4, 0xf5, 0x0f, 0x03, 0x1c, 0x10, 0xfb, 0x7f, 0x2e, 0xee, 0x28, 0x16,
  0x06, 0x1b, 0x02, 0xea, 0x34, 0xfd, 0xd0, 0x1b, 0x25, 0xdf, 0x34, 0xf2,
  0xe1, 0x3b, 0x20, 0x27, 0x08, 0x4c, 0xbf, 0xca, 0xa5, 0xcb, 0x81, 0xc4,
  0xd2, 0x27, 0xe2, 0xaf, 0xf2, 0x13, 0xe9, 0xd7, 0xf4, 0xbd, 0xa4, 0x1b,
  0xfc, 0xe1, 0xd8, 0x0a, 0xc8, 0xd2, 0x3f, 0xe9, 0x0c, 0xf0, 0x00, 0x51,
  0x04, 0x58, 0xf2, 0xf2, 0xc1, 0x7f, 0xa5, 0x14, 0xbd, 0x0f, 0xdf, 0x0e,
  0x31, 0x18, 0x0c, 0x2c, 0x43, 0x01, 0xdb, 0x15, 0x19, 0xfd, 0xe7, 0xf7,
  0xd9, 0xe2, 0xce, 0xa7, 0x3d, 0x46, 0xea, 0xa1, 0xd2, 0x0c, 0xfa, 0xd1,
  0xf4, 0xe0, 0xd7, 0x32, 0xea, 0x34, 0x04, 0xf2, 0xfd, 0x7f, 0xcb, 0x26,
  0x0f, 0x05, 0xc5, 0x17, 0xfb, 0xe0, 0x27, 0x54, 0x22, 0x4d, 0xff, 0x1d,
  0x43, 0x5b, 0x2c, 0xfc, 0xd2, 0xe7, 0xb8, 0x1c, 0xe0, 0x0d, 0x0e, 0xf1,
  0xf4, 0x10, 0x1c, 0x1c, 0x03, 0x24, 0xdb, 0x29, 0x37, 0x73, 0xfc, 0xe6,
  0x33, 0x9d, 0xfd, 0x81, 0xd6, 0xec, 0x13, 0xfc, 0x0c, 0xc0, 0x03, 0xd3,
  0xf8, 0x1c, 0xac, 0xcf, 0x14, 0xd9, 0xea, 0xe0, 0xb4, 0xfd, 0xda, 0x17,
  0x34, 0xcc, 0x0a, 0xa9, 0x25, 0x1c, 0x34, 0x7f, 0x23, 0x55, 0x4d, 0x19,
  0xea, 0x06, 0x18, 0xde, 0x34, 0xec, 0x2f, 0x45, 0xf9, 0x0a, 0xd2, 0xfa,
  0xed, 0x18, 0xf1, 0xfc, 0x14, 0xe3, 0x0a, 0x15, 0xfb, 0x16, 0x29, 0xf4,
  0x35, 0xa2, 0x04, 0x81, 0xf9, 0xd8, 0xef, 0xf7, 0x33, 0xfc, 0x3b, 0xe7,
  0xee, 0x81, 0x01, 0xee, 0xc2, 0xe2, 0xd4, 0xdc, 0x21, 0xf3, 0xc8, 0xf5,
  0x18, 0x4d, 0x41, 0xd8, 0x1a, 0x1d, 0xad, 0x59, 0xcb, 0x4f, 0xad, 0x83,
  0xf5, 0xd6, 0x0f, 0x04, 0x20, 0x25, 0xe6, 0x1d, 0x0f, 0x30, 0xfe, 0x0f,
  0xdc, 0x07, 0xfe, 0xd6, 0x2e, 0xe8, 0x02, 0x0a, 0x1f, 0xf7, 0x4c, 0x2a,
  0x0c, 0x81, 0xed, 0xb5, 0xd9, 0xe6, 0xcb, 0xfa, 0x3b, 0x0e, 0xe9, 0x33,
  0x18, 0xf0, 0x30, 0x28, 0xbd, 0xfc, 0xe3, 0x0e, 0xf9, 0xe9, 0x56, 0x01,
  0xeb, 0x3f, 0xf5, 0x7f, 0x56, 0x0c, 0x2f, 0x21, 0x49, 0x3d, 0xc8, 0xff,
  0xfa, 0x02, 0x2c, 0xee, 0xce, 0x40, 0x9a, 0x15, 0xdc, 0x18, 0xf1, 0xe9,
  0x29, 0x0f, 0xc1, 0x0e, 0xe0, 0xd0, 0x16, 0x17, 0x28, 0xeb, 0xf2, 0x06,
  0xca, 0x8e, 0x10, 0x81, 0x64, 0x39, 0xf3, 0xe6, 0xed, 0x0f, 0xaf, 0x56,
  0x40, 0x07, 0x43, 0x14, 0xbd, 0xdd, 0xd8, 0xe2, 0x1c, 0x22, 0x30, 0x36,
  0xf9, 0x7f, 0x26, 0x67, 0x06, 0x18, 0xef, 0x34, 0x61, 0xf7, 0x96, 0x33,
  0x3f, 0x12, 0x1a, 0x0b, 0x0c, 0xfc, 0xf3, 0x38, 0x03, 0x26, 0x03, 0xf2,
  0xf7, 0xe3, 0xe3, 0xf7, 0xf1, 0x1c, 0xe6, 0xfd, 0x14, 0x19, 0x29, 0x15,
  0x17, 0x81, 0x10, 0x87, 0xfe, 0xee, 0xd0, 0xfe, 0x0e, 0xe3, 0xdc, 0xd5,
  0xd5, 0xcc, 0x3b, 0xfd, 0xf8, 0xee, 0xcc, 0xf7, 0x47, 0x65, 0xef, 0x00,
  0xf5, 0x0b, 0x1a, 0xee, 0xb8, 0x0a, 0xc0, 0x7f, 0xe5, 0x62, 0xf6, 0x1e,
  0x0d, 0x32, 0xff, 0x0f, 0x2b, 0xed, 0x9a, 0x62, 0xec, 0xf5, 0x1e, 0xde,
  0x07, 0x18, 0xcf, 0x02, 0xe5, 0x13, 0x00, 0x24, 0xeb, 0x28, 0xfa, 0xfb,
  0x0b, 0x81, 0x0b, 0x8b, 0x03, 0x1e, 0x11, 0xd4, 0xe7, 0x05, 0x7f, 0x1b,
  0xe8, 0xe5, 0x2d, 0xa1, 0x10, 0x03, 0x19, 0x24, 0xec, 0xdd, 0xf3, 0x0d,
  0xcf, 0x65, 0x75, 0x9c, 0x33, 0xd0, 0xe8, 0x52, 0xd2, 0x56, 0x0c, 0xc1,
  0xeb, 0x28, 0x35, 0x28, 0x68, 0x07, 0x3c, 0x7f, 0x56, 0x63, 0x9d, 0xd8,
  0x2f, 0x1f, 0xe5, 0xdf, 0x2b, 0xfa, 0x19, 0x45, 0x34, 0xd1, 0x5b, 0xe0,
  0x0d, 0xf4, 0xf3, 0xfb, 0x1a, 0xfe, 0xaa, 0xda, 0xff, 0x13, 0x3f, 0x0a,
  0xdd, 0xaf, 0xfc, 0xd4, 0x3b, 0x0a, 0x07, 0x10, 0xd8, 0x29, 0x1c, 0xe3,
  0xcf, 0x51, 0x10, 0x09, 0x0e, 0x19, 0x81, 0x25, 0x0b, 0x40, 0x36, 0xa9,
  0xf0, 0xe3, 0xe8, 0x11, 0xce, 0xc9, 0x6e, 0x8c, 0x16, 0x71, 0xde, 0x3b,
  0x3b, 0xe3, 0x30, 0x58, 0xeb, 0xda, 0x43, 0x97, 0xbd, 0xea, 0xa7, 0x13,
  0x33, 0x7f, 0xf2, 0x71, 0xd8, 0x14, 0x07, 0xf5, 0x1c, 0xd6, 0xdc, 0xde,
  0xd3, 0xea, 0x05, 0x16, 0xf9, 0xea, 0x12, 0xe1, 0x29, 0x08, 0xd9, 0xe8,
  0xfa, 0xdd, 0xda, 0xf1, 0xc2, 0x01, 0xdf, 0x61, 0xe1, 0x7f, 0x04, 0x16,
  0x3a, 0x23, 0xcd, 0xdd, 0xaa, 0xc4, 0xc7, 0x81, 0xfe, 0xf9, 0x1f, 0x20,
  0xee, 0xee, 0xbc, 0xe3, 0x0d, 0xc8, 0x1e, 0x03, 0xe0, 0xbf, 0xed, 0xbd,
  0xee, 0x39, 0x0d, 0x57, 0xe1, 0x26, 0x21, 0x5b, 0xf9, 0xde, 0xdf, 0x07,
  0xba, 0x26, 0x00, 0x08, 0x06, 0xfb, 0xd8, 0xed, 0xfa, 0x05, 0x1c, 0x30,
  0xf6, 0x19, 0x2b, 0x52, 0xff, 0xfb, 0xfd, 0x81, 0x29, 0x83, 0xf8, 0x16,
  0x1b, 0x07, 0x66, 0x4c, 0x65, 0x25, 0x15, 0x7f, 0x25, 0x23, 0xa7, 0x21,
  0x2c, 0xc6, 0x0c, 0xe9, 0x6f, 0x2e, 0xdc, 0x56, 0x54, 0xfe, 0xf5, 0xfc,
  0xce, 0x20, 0xaf, 0x3e, 0x27, 0x61, 0xb0, 0x8c, 0xd0, 0xdb, 0x9b, 0xca,
  0xff, 0x54, 0x54, 0x2d, 0x5a, 0x34, 0x44, 0x0b, 0x30, 0xae, 0xd0, 0x04,
  0x3e, 0xcb, 0xd0, 0xcf, 0xb1, 0x06, 0x7f, 0xf2, 0x07, 0xe9, 0x5c, 0xeb,
  0xf9, 0x15, 0xf9, 0xfc, 0xdb, 0xb7, 0xd1, 0xa2, 0x5f, 0x16, 0xce, 0x27,
  0xe7, 0xf7, 0x1a, 0xb6, 0x24, 0xfd, 0xe6, 0x07, 0xfc, 0x4b, 0xee, 0x7f,
  0xfb, 0x0b, 0xe9, 0xf2, 0x1a, 0xbd, 0xf4, 0x13, 0xdf, 0xa5, 0x81, 0xd3,
  0xc2, 0x11, 0xc5, 0xce, 0x0a, 0x27, 0xcd, 0xcf, 0xd9, 0xd4, 0x9f, 0x01,
  0xee, 0x00, 0xf7, 0x1b, 0xbf, 0xf5, 0x3d, 0xdb, 0xde, 0xed, 0xf9, 0x17,
  0x28, 0x5e, 0xfb, 0x12, 0x09, 0xc1, 0x2b, 0xb9, 0x1d, 0x1c, 0x29, 0xe0,
  0xfe, 0x01, 0x43, 0x2c, 0xea, 0x25, 0xfd, 0xd9, 0xdf, 0xed, 0xc9, 0xf8,
  0x20, 0x40, 0x16, 0x31, 0x1a, 0x81, 0xf2, 0x3b, 0xed, 0xda, 0xeb, 0x00,
  0x7f, 0xa6, 0x00, 0x2c, 0x0e, 0xf9, 0xf0, 0x04, 0xdf, 0x02, 0xdf, 0xfd,
  0xf9, 0xc0, 0xed, 0x39, 0x44, 0xf2, 0xf9, 0x15, 0x28, 0x2c, 0xe0, 0x1f,
  0xf3, 0x41, 0xe4, 0xd6, 0xe5, 0xb3, 0x5d, 0xca, 0x5f, 0x6c, 0x01, 0x32,
  0x0d, 0xda, 0x3a, 0x33, 0x06, 0x2b, 0xe1, 0xb5, 0x9d, 0xe1, 0xf0, 0xf2,
  0xf0, 0x7a, 0x2c, 0x7f, 0x2c, 0xef, 0x1e, 0xd8, 0xe0, 0x35, 0xb1, 0x5c,
  0xc4, 0x16, 0xad, 0xe2, 0xeb, 0xe9, 0x23, 0xd2, 0x1b, 0x18, 0x1e, 0x1b,
  0xd7, 0xd5, 0x2a, 0x17, 0x3c, 0x1a, 0xf0, 0x91, 0x01, 0x81, 0x2a, 0x3a,
  0x13, 0xfb, 0xe2, 0xf7, 0x2b, 0x01, 0xe1, 0xb6, 0x19, 0xef, 0x0e, 0xe9,
  0x21, 0xe0, 0xff, 0x3c, 0xfe, 0x07, 0xe8, 0x1f, 0x1c, 0x00, 0xea, 0x01,
  0xc3, 0x32, 0x20, 0x2f, 0x27, 0x81, 0x2b, 0xe7, 0x1d, 0x03, 0x18, 0x51,
  0x1d, 0x1d, 0xce, 0xd5, 0x3f, 0x16, 0x48, 0xef, 0x2f, 0x1e, 0x06, 0x2b,
  0x0e, 0x1a, 0x48, 0x8a, 0xe6, 0xf1, 0xbf, 0x4b, 0x1a, 0xff, 0x0f, 0x7f,
  0xe9, 0xa7, 0xd4, 0xbf, 0x7a, 0xdc, 0x90, 0x81, 0x41, 0xde, 0x59, 0x40,
  0x2f, 0xfd, 0x14, 0x7c, 0xfd, 0xd9, 0x29, 0x1b, 0x16, 0x33, 0xa3, 0xd6,
  0xf5, 0x07, 0xc7, 0xef, 0x51, 0x95, 0x14, 0x4d, 0x4c, 0x1a, 0xd3, 0x1e,
  0xf3, 0x0d, 0x57, 0x06, 0xef, 0xcf, 0xe8, 0x00, 0x73, 0x17, 0x09, 0x3b,
  0x1a, 0xe8, 0xf8, 0x7e, 0x2d, 0x31, 0x9b, 0xe3, 0x3e, 0x0d, 0xab, 0xae,
  0x7f, 0xc7, 0x0e, 0x12, 0x92, 0xd5, 0x54, 0xac, 0xc5, 0x18, 0x2a, 0x2d,
  0xcf, 0x01, 0x1e, 0x76, 0xad, 0xda, 0x0a, 0xd1, 0x81, 0xdf, 0x32, 0x14,
  0x33, 0x42, 0xf8, 0x25, 0xf9, 0x2a, 0x37, 0x6c, 0xc2, 0xb7, 0x7f, 0x99,
  0x1b, 0xdb, 0x67, 0xf9, 0xd0, 0xe5, 0x17, 0x31, 0xf7, 0xaf, 0xc8, 0x86,
  0x0c, 0xec, 0x5c, 0x14, 0xf0, 0x60, 0xc6, 0x0b, 0xec, 0x7c, 0xe3, 0x84,
  0xa7, 0x15, 0xd7, 0x07, 0x34, 0xda, 0xa2, 0x5a, 0xe0, 0xe8, 0xf8, 0xfa,
  0xe3, 0x08, 0xcb, 0xd5, 0xfd, 0xca, 0x0c, 0x40, 0x19, 0x0c, 0xc6, 0xf9,
  0x05, 0xd3, 0x06, 0xf9, 0x5d, 0x0f, 0x81, 0x12, 0xf8, 0xc6, 0x5d, 0xd9,
  0xe8, 0xf6, 0x5c, 0x12, 0xe6, 0x2a, 0x17, 0x25, 0x3c, 0xe1, 0xdc, 0x01,
  0x34, 0x3d, 0xe5, 0x08, 0xf3, 0x56, 0xef, 0x64, 0xbb, 0x48, 0xbf, 0x8a,
  0x81, 0x46, 0xdc, 0x0d, 0xc9, 0xa2, 0x4d, 0xde, 0x4a, 0x40, 0xcd, 0xec,
  0x12, 0xe6, 0x23, 0x25, 0xf3, 0xea, 0xfc, 0xd6, 0xc8, 0xcc, 0xa4, 0x39,
  0xd9, 0x7f, 0xfa, 0x6e, 0x31, 0x01, 0xe8, 0xd8, 0x2e, 0xf6, 0xff, 0xff,
  0x04, 0x00, 0x00, 0x00, 0x00, 0x01, 0x00, 0x00, 0x00, 0x00, 0x00, 0x00,
  0x00, 0x00, 0x00, 0x00, 0x00, 0x00, 0x00, 0x00, 0x00, 0x00, 0x00, 0x00,
  0x00, 0x00, 0x00, 0x00, 0x00, 0x00, 0x00, 0x00, 0x00, 0x00, 0x00, 0x00,
  0x00, 0x00, 0x00, 0x00, 0x00, 0x00, 0x00, 0x00, 0x00, 0x00, 0x00, 0x00,
  0x00, 0x00, 0x00, 0x00, 0x00, 0x00, 0x00, 0x00, 0xff, 0xff, 0xff, 0xff,
  0x00, 0x00, 0x00, 0x00, 0x00, 0x00, 0x00, 0x00, 0x00, 0x00, 0x00, 0x00,
  0x00, 0x00, 0x00, 0x00, 0x00, 0x00, 0x00, 0x00, 0x00, 0x00, 0x00, 0x00,
  0x00, 0x00, 0x00, 0x00, 0x00, 0x00, 0x00, 0x00, 0x00, 0x00, 0x00, 0x00,
  0x00, 0x00, 0x00, 0x00, 0x00, 0x00, 0x00, 0x00, 0x00, 0x00, 0x00, 0x00,
  0x00, 0x00, 0x00, 0x00, 0x00, 0x00, 0x00, 0x00, 0x00, 0x00, 0x00, 0x00,
  0x00, 0x00, 0x00, 0x00, 0x00, 0x00, 0x00, 0x00, 0x00, 0x00, 0x00, 0x00,
  0x00, 0x00, 0x00, 0x00, 0x00, 0x00, 0x00, 0x00, 0x00, 0x00, 0x00, 0x00,
  0x00, 0x00, 0x00, 0x00, 0x00, 0x00, 0x00, 0x00, 0x00, 0x00, 0x00, 0x00,
  0x00, 0x00, 0x00, 0x00, 0x00, 0x00, 0x00, 0x00, 0x00, 0x00, 0x00, 0x00,
  0x00, 0x00, 0x00, 0x00, 0x00, 0x00, 0x00, 0x00, 0x00, 0x00, 0x00, 0x00,
  0x00, 0x00, 0x00, 0x00, 0x00, 0x00, 0x00, 0x00, 0x00, 0x00, 0x00, 0x00,
  0x00, 0x00, 0x00, 0x00, 0x00, 0x00, 0x00, 0x00, 0x00, 0x00, 0x00, 0x00,
  0x00, 0x00, 0x00, 0x00, 0x00, 0x00, 0x00, 0x00, 0x00, 0x00, 0x00, 0x00,
  0x00, 0x00, 0x00, 0x00, 0x00, 0x00, 0x00, 0x00, 0x00, 0x00, 0x00, 0x00,
  0x00, 0x00, 0x00, 0x00, 0x00, 0x00, 0x00, 0x00, 0x00, 0x00, 0x00, 0x00,
  0xff, 0xff, 0xff, 0xff, 0x00, 0x00, 0x00, 0x00, 0x00, 0x00, 0x00, 0x00,
  0x00, 0x00, 0x00, 0x00, 0x00, 0x00, 0x00, 0x00, 0x00, 0x00, 0x00, 0x00,
  0x3a, 0xf7, 0xff, 0xff, 0x04, 0x00, 0x00, 0x00, 0x00, 0x08, 0x00, 0x00,
  0x2c, 0x14, 0xcc, 0x09, 0xb7, 0x34, 0x17, 0xab, 0x2a, 0xff, 0x91, 0xe7,
  0x1f, 0xd7, 0xeb, 0x40, 0x16, 0xf5, 0x88, 0xff, 0xd5, 0x01, 0x34, 0x4f,
  0x38, 0xf7, 0xcb, 0x46, 0x08, 0x3f, 0xf9, 0x28, 0xe8, 0x27, 0x01, 0x11,
  0x14, 0x3f, 0x0c, 0x2f, 0x31, 0xff, 0x04, 0x05, 0xee, 0xfb, 0xf0, 0xf9,
  0xf8, 0xac, 0xdc, 0x9a, 0x0f, 0x23, 0x17, 0x0b, 0x03, 0x02, 0xbd, 0x0f,
  0x81, 0x1f, 0x9a, 0x17, 0x24, 0xde, 0x0c, 0x8b, 0x36, 0x2e, 0x1c, 0x53,
  0xad, 0x12, 0xf9, 0x11, 0xc1, 0x20, 0x0d, 0x02, 0x16, 0x0a, 0x0b, 0xd2,
  0x81, 0xd9, 0x45, 0x04, 0xcc, 0xcc, 0xbf, 0xb9, 0x16, 0xf8, 0xbd, 0x1a,
  0x18, 0x02, 0xd5, 0x9a, 0xc3, 0x05, 0xc2, 0xe9, 0x0c, 0xfa, 0xd8, 0x28,
  0xcc, 0xf2, 0xd1, 0xdb, 0x06, 0xf7, 0xcd, 0x2f, 0xee, 0x06, 0xd6, 0x08,
  0xaf, 0x5c, 0x0f, 0xed, 0xf7, 0xcb, 0x14, 0xe7, 0x37, 0xd1, 0xed, 0xb5,
  0xdf, 0xbf, 0xb2, 0xe6, 0x12, 0x07, 0x06, 0x1d, 0xd8, 0xf9, 0x23, 0xb6,
  0x2d, 0x21, 0x0f, 0xbf, 0x14, 0x03, 0xfb, 0x81, 0xa5, 0xb7, 0x12, 0xf5,
  0xee, 0xd9, 0x14, 0xd6, 0x0e, 0xb3, 0xc6, 0xd2, 0xa5, 0xc2, 0xe7, 0xc2,
  0x24, 0xa4, 0x13, 0x16, 0x15, 0xff, 0xe4, 0xd9, 0x0d, 0x0c, 0x10, 0x02,
  0x1a, 0xff, 0xf7, 0x07, 0xdf, 0x1b, 0xc6, 0x1f, 0xff, 0xeb, 0xf5, 0x22,
  0x33, 0xb3, 0xff, 0xd6, 0xdf, 0xf1, 0x97, 0xf6, 0x15, 0x0c, 0x04, 0x0f,
  0xd6, 0x13, 0xfc, 0xbf, 0x1a, 0x0e, 0x09, 0xcc, 0xe5, 0xe1, 0x0f, 0xfe,
  0xf5, 0xc5, 0xf0, 0x11, 0x05, 0x02, 0x10, 0x12, 0x09, 0xf1, 0xc2, 0xb6,
  0x9b, 0xf9, 0xfd, 0xef, 0xfc, 0x81, 0x0c, 0x0d, 0x07, 0xec, 0xf8, 0xbb,
  0xf6, 0x04, 0x0d, 0xf0, 0x00, 0x10, 0xfd, 0x06, 0xba, 0xee, 0xea, 0xff,
  0x00, 0xce, 0x08, 0xff, 0x2d, 0xf4, 0xd1, 0x0b, 0xdb, 0x20, 0xf5, 0xc7,
  0x27, 0xc7, 0xa6, 0xec, 0xf0, 0xb7, 0x14, 0x01, 0x01, 0xf0, 0xba, 0x13,
  0xe3, 0xc8, 0x12, 0x1e, 0x19, 0x0e, 0xd5, 0xee, 0xdc, 0x25, 0xc7, 0x37,
  0xdc, 0x2d, 0xf6, 0xb8, 0xf5, 0x4d, 0xd8, 0x27, 0x26, 0x09, 0xf3, 0xef,
  0xd9, 0xba, 0xe8, 0xf9, 0xa0, 0xce, 0xc3, 0xc2, 0xe1, 0x01, 0xc8, 0x00,
  0xad, 0xf9, 0xd6, 0xba, 0x97, 0xfc, 0x81, 0xfa, 0xd5, 0xef, 0xd0, 0xed,
  0x0a, 0xc9, 0xc4, 0x02, 0xf9, 0xff, 0x08, 0x17, 0xa2, 0x04, 0xfb, 0xc9,
  0x81, 0x26, 0x07, 0xae, 0x3f, 0x00, 0xb7, 0x07, 0x2a, 0xd6, 0x04, 0x35,
  0x0d, 0x10, 0xed, 0x06, 0x13, 0x24, 0xe8, 0xcd, 0x2a, 0x23, 0x1d, 0xf7,
  0xb6, 0xe5, 0xd7, 0x15, 0x06, 0xec, 0x54, 0x29, 0xc9, 0x2a, 0x0b, 0x0f,
  0xf2, 0x26, 0x2d, 0x05, 0xfc, 0xf4, 0x5e, 0x3f, 0xb5, 0xd0, 0xd3, 0x14,
  0xc9, 0xbf, 0xe1, 0x24, 0xda, 0x4a, 0x0a, 0x87, 0xca, 0x81, 0x10, 0xa1,
  0xf3, 0xfd, 0x02, 0xdf, 0xa8, 0xee, 0x01, 0x08, 0x34, 0x14, 0x97, 0x38,
  0x44, 0xf1, 0x20, 0xa9, 0xee, 0xdf, 0xe4, 0x20, 0x1a, 0x12, 0xfd, 0x1d,
  0xda, 0x2a, 0xc9, 0x29, 0x8c, 0x19, 0xd1, 0xf8, 0x16, 0xe5, 0x22, 0x0d,
  0x28, 0x1a, 0x24, 0x9e, 0xdb, 0xbf, 0xf6, 0xae, 0xec, 0xfa, 0xd1, 0xfc,
  0x0f, 0x34, 0x17, 0x8c, 0xf8, 0x1b, 0x0c, 0x87, 0x11, 0x18, 0xae, 0x21,
  0xff, 0x03, 0x04, 0x1f, 0xee, 0x04, 0x17, 0x05, 0x17, 0x0b, 0x0c, 0xbe,
  0xce, 0xe6, 0x14, 0x25, 0xce, 0x83, 0xf7, 0xe8, 0x14, 0xe3, 0x0e, 0x05,
  0xe6, 0xed, 0xf0, 0xa8, 0xeb, 0x0e, 0x1e, 0xd9, 0x1b, 0xeb, 0x19, 0xfa,
  0x08, 0x11, 0xca, 0xc7, 0x16, 0xfe, 0xea, 0x32, 0x0e, 0x13, 0xc9, 0x1e,
  0x81, 0x3e, 0xf3, 0x14, 0x16, 0xeb, 0x22, 0xf6, 0x07, 0x07, 0x81, 0x01,
  0xce, 0x5c, 0x0f, 0xbb, 0x3d, 0xfe, 0x85, 0xb1, 0x07, 0xd5, 0xda, 0x32,
  0x13, 0x3a, 0x82, 0x03, 0x12, 0x14, 0x39, 0x51, 0x0b, 0x0e, 0xf2, 0x23,
  0xf7, 0xfe, 0x10, 0x1f, 0x93, 0x09, 0xe7, 0x08, 0xfe, 0x42, 0xed, 0xea,
  0xf7, 0xfc, 0x10, 0x0c, 0x0e, 0xf0, 0xfc, 0x0d, 0x02, 0x82, 0xde, 0x92,
  0x06, 0xc3, 0xfd, 0x08, 0x14, 0x13, 0xdb, 0x10, 0x94, 0x20, 0x9b, 0xdc,
  0xdf, 0xea, 0x03, 0x90, 0x09, 0xeb, 0x1b, 0x1e, 0x84, 0xee, 0xe9, 0x04,
  0x22, 0x42, 0x2b, 0xf8, 0xf2, 0x15, 0x06, 0xe8, 0xdb, 0xfa, 0xf8, 0xc3,
  0x8a, 0x1a, 0xeb, 0xc4, 0xef, 0xb1, 0xc9, 0xd4, 0x0b, 0xea, 0xf3, 0xca,
  0xed, 0xc9, 0x42, 0x02, 0xdb, 0x1b, 0xe9, 0x05, 0x2f, 0x81, 0xde, 0x0f,
  0x0f, 0xf5, 0xde, 0x35, 0xe1, 0xfb, 0xb8, 0xeb, 0x3b, 0x4b, 0xed, 0x1d,
  0x06, 0xf8, 0x0a, 0x14, 0x15, 0x2f, 0x11, 0x1d, 0x1b, 0xb4, 0xd8, 0xd4,
  0x09, 0xed, 0x0e, 0xd9, 0xf5, 0xef, 0x28, 0x13, 0x44, 0xec, 0x14, 0xba,
  0x07, 0x0a, 0x0f, 0x86, 0xcd, 0xa2, 0xf1, 0x31, 0x2b, 0xd4, 0x09, 0x86,
  0x02, 0xad, 0x0a, 0x27, 0xf5, 0x9d, 0x0c, 0x0d, 0x09, 0xc5, 0x18, 0xd8,
  0x0f, 0xf0, 0xb8, 0x81, 0xfa, 0xe4, 0xea, 0xcb, 0x66, 0xc1, 0xdd, 0x1f,
  0xa7, 0x11, 0xd5, 0x2f, 0x0f, 0x11, 0x01, 0xe2, 0x1c, 0xe9, 0x0b, 0xce,
  0xe3, 0xec, 0xa0, 0x00, 0x09, 0x06, 0x01, 0x2a, 0xbe, 0xc6, 0x2b, 0xc5,
  0x25, 0x16, 0xf7, 0xf3, 0x16, 0xd1, 0xfc, 0xdc, 0xda, 0xab, 0x17, 0xd6,
  0xfc, 0xe2, 0x0e, 0xe1, 0xed, 0xcd, 0xce, 0xa1, 0xe4, 0xe4, 0x0c, 0xcb,
  0x23, 0x81, 0xd4, 0x1a, 0x01, 0x1a, 0xa6, 0x90, 0x25, 0x03, 0x25, 0x12,
  0xfb, 0x35, 0xf5, 0xea, 0xdf, 0xe3, 0xb6, 0x01, 0xf6, 0xb9, 0x04, 0x09,
  0x45, 0xd5, 0x24, 0xa5, 0xcf, 0x46, 0xe6, 0x35, 0x31, 0x1d, 0x29, 0x28,
  0xbc, 0x17, 0xe2, 0xde, 0x01, 0x26, 0x01, 0xab, 0xf5, 0x08, 0x02, 0x3b,
  0xba, 0x9c, 0xdf, 0x04, 0x17, 0xc6, 0x03, 0x33, 0x25, 0xf1, 0xd5, 0xc0,
  0x81, 0xf0, 0x24, 0xe5, 0x08, 0xe1, 0x04, 0x3f, 0x22, 0xd1, 0xa4, 0xc6,
  0x02, 0xfd, 0xf3, 0x0a, 0x06, 0x00, 0xd8, 0xe7, 0x98, 0x48, 0xa6, 0xce,
  0xf1, 0x00, 0x04, 0x0d, 0x11, 0x1d, 0x32, 0xbc, 0xed, 0x3e, 0xe5, 0x53,
  0x2c, 0x02, 0x0e, 0x04, 0xe8, 0x21, 0x14, 0x20, 0x0f, 0xfd, 0x10, 0xa5,
  0xf2, 0x00, 0x1c, 0x27, 0xb9, 0xb1, 0xe8, 0xe0, 0x0b, 0xd2, 0xeb, 0x19,
  0x02, 0xfa, 0xfa, 0xc1, 0xc3, 0x02, 0xf1, 0xdd, 0x2c, 0xeb, 0xde, 0xfb,
  0x36, 0x2e, 0xbe, 0xcf, 0xee, 0xfa, 0xe4, 0x4d, 0x0b, 0x39, 0xa4, 0x22,
  0x81, 0x73, 0xd4, 0x14, 0x20, 0x07, 0x1d, 0x2b, 0xdf, 0xf2, 0xdd, 0xf5,
  0xf9, 0x81, 0x14, 0x2f, 0xb3, 0x06, 0xdd, 0x0f, 0xee, 0x21, 0x0c, 0xc9,
  0xff, 0x09, 0xe8, 0x13, 0x0d, 0xd3, 0xb2, 0x99, 0xcd, 0x12, 0x15, 0xd8,
  0x03, 0x0e, 0x0f, 0xa8, 0xf0, 0xd6, 0xea, 0x22, 0x06, 0x8e, 0x05, 0x04,
  0xce, 0x01, 0xe5, 0x1e, 0x17, 0x15, 0xdc, 0x0f, 0xf7, 0xe9, 0x0f, 0x13,
  0x11, 0x08, 0x16, 0xf3, 0xcc, 0x27, 0xda, 0x05, 0xca, 0xf9, 0xf4, 0x17,
  0x11, 0xfe, 0xe7, 0xea, 0x02, 0x81, 0xbd, 0x21, 0xcf, 0x06, 0xef, 0x2c,
  0xbe, 0x2c, 0x1e, 0xdb, 0x24, 0xfe, 0xfe, 0x1b, 0xe2, 0xde, 0xf0, 0x89,
  0xb7, 0xee, 0xfe, 0xe5, 0xf1, 0x1f, 0xc9, 0xab, 0x31, 0x8a, 0xdd, 0xa9,
  0xe6, 0x8e, 0xd7, 0xc5, 0xe0, 0xf1, 0x36, 0x0b, 0xc9, 0xf4, 0x07, 0x02,
  0x0c, 0x0b, 0xee, 0x0c, 0x3c, 0xfc, 0xfb, 0x08, 0xce, 0x2d, 0xf1, 0x43,
  0x0f, 0xd3, 0x16, 0xfb, 0x53, 0x1a, 0xd9, 0x1c, 0xdb, 0x1c, 0x03, 0x27,
  0x05, 0x1d, 0x83, 0xdb, 0xf3, 0xeb, 0x08, 0x41, 0x0a, 0x57, 0x9b, 0x0b,
  0xe5, 0x1a, 0x05, 0x28, 0x81, 0x0f, 0xf5, 0x32, 0xec, 0xe3, 0xe9, 0x08,
  0xd2, 0xdc, 0x02, 0x07, 0x2e, 0xe5, 0xfd, 0xff, 0x14, 0x12, 0x13, 0x02,
  0xea, 0xee, 0xd2, 0x05, 0xf0, 0x92, 0xd7, 0xc6, 0x03, 0xb3, 0x15, 0xe9,
  0x39, 0xfd, 0xcc, 0xf8, 0xa3, 0xf9, 0x99, 0xa1, 0x2b, 0xe9, 0x20, 0xde,
  0xc5, 0xd2, 0x9c, 0x11, 0x8c, 0x27, 0x05, 0x17, 0xc9, 0xde, 0x12, 0xbb,
  0xcd, 0x0b, 0x17, 0xe8, 0xce, 0x81, 0xda, 0xe9, 0xed, 0xea, 0xf6, 0x09,
  0x30, 0x0b, 0xd6, 0xde, 0x03, 0xc9, 0xeb, 0x84, 0xdc, 0xf8, 0x23, 0xb8,
  0xe4, 0xa2, 0xd3, 0x12, 0xdc, 0x08, 0xe1, 0xdc, 0x15, 0x09, 0x16, 0x38,
  0xfb, 0x2c, 0xd6, 0x0d, 0xca, 0xeb, 0x9b, 0x41, 0x12, 0x8d, 0x06, 0x0f,
  0x19, 0xf7, 0x81, 0x08, 0xd9, 0x58, 0x03, 0x99, 0x22, 0xf1, 0xa2, 0x9d,
  0x02, 0xd5, 0x08, 0x26, 0xe8, 0x0a, 0xb3, 0xed, 0xd6, 0x1c, 0x24, 0x1d,
  0x11, 0xfa, 0xf7, 0x2f, 0x0c, 0x1b, 0x09, 0x1b, 0xd4, 0x0e, 0xf5, 0xe5,
  0x04, 0x35, 0xed, 0x0c, 0x21, 0x09, 0xea, 0x0d, 0x03, 0x01, 0xdf, 0xf8,
  0x10, 0xa9, 0xfe, 0xab, 0x03, 0xd3, 0xfd, 0xc0, 0x19, 0xef, 0xc5, 0x16,
  0xc6, 0xf5, 0xbc, 0x8d, 0x04, 0xe1, 0x03, 0x1d, 0x24, 0x00, 0x0c, 0xcb,
  0xc2, 0x95, 0x0b, 0x93, 0x07, 0xf7, 0xf2, 0x10, 0xbb, 0xd0, 0x15, 0xf9,
  0x46, 0x25, 0xdc, 0x29, 0x32, 0xfd, 0x11, 0xf7, 0xd6, 0xfe, 0xee, 0x27,
  0x01, 0x23, 0xf8, 0xfe, 0xfd, 0x2a, 0xa7, 0x1f, 0x9a, 0x08, 0x81, 0xd5,
  0x07, 0xd4, 0x1c, 0x0b, 0x10, 0x26, 0x21, 0xac, 0x85, 0x90, 0xfb, 0x87,
  0x1b, 0xe1, 0xf8, 0xbc, 0x02, 0x0d, 0x05, 0x93, 0x35, 0x1a, 0xc7, 0x06,
  0xe9, 0xf4, 0x15, 0xdd, 0x3c, 0x0f, 0xd5, 0xab, 0x05, 0xe6, 0x14, 0x4b,
  0x0a, 0x2c, 0xc2, 0x10, 0x15, 0xda, 0x0a, 0x14, 0x3e, 0xfd, 0x93, 0x37,
  0xd0, 0x04, 0xeb, 0x1a, 0xcd, 0x06, 0x12, 0x05, 0x16, 0x2b, 0xab, 0x05,
  0x29, 0x05, 0xf3, 0xfc, 0xc3, 0xd4, 0xcc, 0xfc, 0xc5, 0xa9, 0x98, 0xb3,
  0xef, 0xc8, 0x30, 0xeb, 0xee, 0xfa, 0xf3, 0xe1, 0xc9, 0xe1, 0xbb, 0x81,
  0x24, 0x10, 0xc6, 0x2b, 0xc2, 0x13, 0x04, 0xcf, 0x05, 0x0c, 0xc2, 0xdc,
  0xef, 0xbf, 0x07, 0x20, 0x0c, 0x18, 0xb7, 0x10, 0xfc, 0xed, 0x23, 0x29,
  0x17, 0x0b, 0xe0, 0x3e, 0xd7, 0x22, 0x0d, 0x3f, 0xd3, 0x38, 0x17, 0xf6,
  0x0f, 0x37, 0xda, 0xf8, 0x26, 0xfb, 0x08, 0xde, 0xcf, 0xfc, 0x1e, 0x00,
  0xb5, 0xc8, 0xfe, 0xb4, 0x1f, 0xee, 0x03, 0xf9, 0xfb, 0x2b, 0xcb, 0xd5,
  0x81, 0xde, 0x84, 0xf8, 0xf5, 0x05, 0x14, 0x08, 0xe5, 0xbe, 0xb4, 0xfd,
  0x0b, 0x00, 0x01, 0xfa, 0xf9, 0x2e, 0x1a, 0x07, 0x1a, 0x1a, 0xe2, 0xe0,
  0xe7, 0xfc, 0xfc, 0x81, 0xd0, 0xb2, 0x16, 0xd0, 0xff, 0xfe, 0xfe, 0xb0,
  0xf3, 0x92, 0x00, 0xd7, 0xfa, 0x88, 0x18, 0xb6, 0x10, 0x92, 0x1d, 0xfd,
  0x0e, 0x19, 0x8a, 0xc2, 0x19, 0xf6, 0x01, 0x24, 0x4b, 0xf0, 0xc8, 0x0b,
  0xca, 0x31, 0xbb, 0x3d, 0xf4, 0xf8, 0x0b, 0x00, 0xd5, 0xfd, 0x19, 0xfb,
  0x05, 0x8b, 0xdc, 0xfb, 0xfd, 0x06, 0xf6, 0x02, 0xed, 0x16, 0x09, 0xfc,
  0x29, 0x16, 0xef, 0x0b, 0xd8, 0xd3, 0xe6, 0x81, 0xe3, 0xec, 0x13, 0xd3,
  0xf8, 0x03, 0x05, 0xab, 0x01, 0xbe, 0x17, 0xde, 0xf6, 0x8f, 0x11, 0xde,
  0x0e, 0xfd, 0x11, 0x22, 0x38, 0x13, 0xc4, 0x1b, 0x0a, 0x17, 0xfc, 0xfb,
  0x01, 0xe5, 0xc0, 0x03, 0xa7, 0x31, 0xea, 0x1e, 0xf7, 0xf2, 0x0e, 0x20,
  0x42, 0x09, 0x14, 0x9f, 0x15, 0x14, 0xd2, 0x32, 0x18, 0xd8, 0x20, 0xfb,
  0x00, 0x12, 0xfb, 0x00, 0x2c, 0x11, 0x01, 0xc0, 0xa9, 0xd1, 0x01, 0x0c,
  0xd7, 0xbb, 0xb4, 0xc7, 0x23, 0xfa, 0xa4, 0x13, 0x2c, 0xdc, 0xdc, 0x9a,
  0xfb, 0x1b, 0xcb, 0x2b, 0x17, 0xd8, 0x10, 0x14, 0x81, 0xad, 0x06, 0xb8,
  0x03, 0x14, 0xbb, 0x17, 0x27, 0xf3, 0xce, 0xbe, 0xa1, 0x42, 0x0e, 0xff,
  0xf8, 0xd3, 0xf6, 0x1c, 0x00, 0xf4, 0x8b, 0xec, 0xd0, 0x53, 0xfc, 0xc6,
  0x0a, 0x25, 0x8b, 0xda, 0x03, 0xcd, 0xfc, 0x20, 0xc5, 0xf4, 0x8a, 0x0a,
  0x13, 0x23, 0x20, 0x25, 0xdf, 0x02, 0x03, 0x23, 0x15, 0xf5, 0x0c, 0x53,
  0xd1, 0x31, 0x18, 0x04, 0x01, 0x2c, 0xfb, 0x0c, 0x03, 0xdd, 0xef, 0x25,
  0xf0, 0xec, 0x0a, 0x21, 0x06, 0xb5, 0xed, 0xbe, 0xf1, 0xcc, 0xea, 0xd3,
  0x46, 0xf5, 0xdb, 0x0a, 0xab, 0x15, 0x81, 0x02, 0x22, 0xb0, 0x0a, 0x0a,
  0xce, 0xc3, 0x81, 0x06, 0x01, 0xf9, 0x1f, 0xf1, 0xd8, 0x23, 0xf8, 0x98,
  0x32, 0x05, 0x12, 0x00, 0xcd, 0xe6, 0x17, 0xca, 0xd7, 0xc7, 0x09, 0xf5,
  0x17, 0xf5, 0xdd, 0xbf, 0x09, 0xc5, 0xc8, 0xd4, 0xac, 0xce, 0xff, 0xd3,
  0x09, 0xa8, 0xe4, 0xe1, 0xc4, 0x0e, 0x17, 0xd7, 0xcf, 0x14, 0x18, 0x0a,
  0x3e, 0x27, 0xfb, 0x18, 0xf1, 0x0f, 0xdb, 0x45, 0x00, 0xcf, 0x08, 0xfb,
  0x12, 0x11, 0xf1, 0xe5, 0xe0, 0xba, 0xdb, 0x55, 0xd1, 0x10, 0xb3, 0x0d,
  0xba, 0xcc, 0x0c, 0x06, 0xba, 0x0c, 0xc1, 0x11, 0x18, 0xd6, 0xaf, 0x9f,
  0xb6, 0xb2, 0x22, 0xf6, 0x23, 0x0d, 0x02, 0x81, 0xc5, 0x9d, 0xfb, 0x13,
  0xff, 0x86, 0x10, 0xf3, 0xe1, 0x89, 0xad, 0x07, 0xf1, 0x1d, 0xd6, 0xb5,
  0x25, 0x07, 0x11, 0x56, 0x3a, 0x00, 0x27, 0xb7, 0xb3, 0xcf, 0xce, 0x19,
  0xee, 0xcd, 0xe4, 0xe9, 0xdb, 0xef, 0x1a, 0xe9, 0xeb, 0x2f, 0x02, 0xec,
  0x06, 0x04, 0x07, 0xdd, 0x23, 0xe5, 0xd0, 0x73, 0xc8, 0xbe, 0x02, 0x07,
  0x26, 0x1f, 0x06, 0xb2, 0xa5, 0x03, 0x06, 0x18, 0xd4, 0xda, 0x0d, 0xdf,
  0xeb, 0x8f, 0xd5, 0x2b, 0x32, 0x13, 0xc7, 0xff, 0xe7, 0xb5, 0xcb, 0xcd,
  0xeb, 0xbf, 0x0f, 0xef, 0x1b, 0x01, 0xfb, 0xe4, 0x8f, 0xbd, 0x1e, 0xc3,
  0x70, 0x81, 0xce, 0x8c, 0x02, 0xfc, 0x09, 0xcd, 0x07, 0xf5, 0xdf, 0x0d,
  0x0b, 0xe7, 0xc9, 0x1e, 0x11, 0xe4, 0x23, 0x04, 0xd2, 0x2c, 0xfe, 0xe0,
  0x2f, 0xe6, 0x30, 0xd6, 0xdd, 0x00, 0x1a, 0xd9, 0xcb, 0xdc, 0xa5, 0x2b,
  0xa9, 0xfc, 0x0c, 0x06, 0x25, 0xfc, 0xcb, 0xf1, 0xb0, 0x0c, 0x03, 0xc6,
  0x11, 0xd2, 0x10, 0xf1, 0xfb, 0xf5, 0xff, 0xd6, 0x81, 0x2a, 0xbb, 0x05,
  0x09, 0xe8, 0xdf, 0x0b, 0xd0, 0x14, 0xf4, 0x1a, 0x20, 0x14, 0x00, 0xfe,
  0x02, 0xcb, 0x01, 0x0a, 0x0f, 0x2c, 0xf2, 0xc6, 0xd7, 0x9a, 0x02, 0xca,
  0x16, 0xed, 0xa9, 0x04, 0xc9, 0xcc, 0x16, 0x1b, 0x39, 0x19, 0xfa, 0x1d,
  0xff, 0x01, 0x05, 0x05, 0xb3, 0x08, 0x0a, 0x32, 0xfb, 0x27, 0xfc, 0x02,
  0x0b, 0xfe, 0xae, 0xfa, 0xc3, 0xff, 0x9b, 0xc6, 0xf0, 0xec, 0x12, 0xfd,
  0x17, 0x17, 0xef, 0xae, 0x8b, 0xca, 0x05, 0x81, 0xec, 0xb1, 0xfa, 0xc9,
  0x06, 0x10, 0x02, 0x9a, 0x47, 0xd6, 0xbd, 0x30, 0xd4, 0x1f, 0xf3, 0xe1,
  0x5c, 0xc9, 0xa3, 0xb5, 0xe0, 0xb0, 0xf9, 0x37, 0xdc, 0x0d, 0x99, 0x00,
  0xd8, 0xc9, 0x0e, 0x10, 0x55, 0x09, 0xb5, 0x5d, 0xa3, 0x0d, 0x0e, 0x19,
  0xae, 0x07, 0x19, 0xf1, 0x05, 0x08, 0xc5, 0xfa, 0x24, 0x0d, 0xf2, 0xf8,
  0xb2, 0x14, 0xee, 0x11, 0x98, 0xbc, 0xd8, 0xc7, 0x09, 0xc6, 0x2f, 0xe3,
  0xaa, 0xe9, 0xcc, 0xd0, 0x9b, 0xfe, 0x81, 0xf0, 0x46, 0xff, 0xff, 0xff,
  0x04, 0x00, 0x00, 0x00, 0x80, 0x00, 0x00, 0x00, 0x00, 0x00, 0x00, 0x00,
  0x00, 0x00, 0x00, 0x00, 0x00, 0x00, 0x00, 0x00, 0x00, 0x00, 0x00, 0x00,
  0x00, 0x00, 0x00, 0x00, 0x00, 0x00, 0x00, 0x00, 0x00, 0x00, 0x00, 0x00,
  0x00, 0x00, 0x00, 0x00, 0x00, 0x00, 0x00, 0x00, 0x00, 0x00, 0x00, 0x00,
  0x00, 0x00, 0x00, 0x00, 0x00, 0x00, 0x00, 0x00, 0x00, 0x00, 0x00, 0x00,
  0x00, 0x00, 0x00, 0x00, 0x00, 0x00, 0x00, 0x00, 0x00, 0x00, 0x00, 0x00,
  0x00, 0x00, 0x00, 0x00, 0x00, 0x00, 0x00, 0x00, 0x00, 0x00, 0x00, 0x00,
  0x00, 0x00, 0x00, 0x00, 0x00, 0x00, 0x00, 0x00, 0x00, 0x00, 0x00, 0x00,
  0x00, 0x00, 0x00, 0x00, 0x00, 0x00, 0x00, 0x00, 0x00, 0x00, 0x00, 0x00,
  0x00, 0x00, 0x00, 0x00, 0x00, 0x00, 0x00, 0x00, 0x00, 0x00, 0x00, 0x00,
  0x00, 0x00, 0x00, 0x00, 0x00, 0x00, 0x00, 0x00, 0x00, 0x00, 0x00, 0x00,
  0x00, 0x00, 0x00, 0x00, 0xd2, 0xff, 0xff, 0xff, 0x04, 0x00, 0x00, 0x00,
  0x20, 0x00, 0x00, 0x00, 0x24, 0xd7, 0xad, 0xd7, 0x38, 0x41, 0x42, 0xeb,
  0x37, 0xc8, 0xdc, 0xc6, 0xe8, 0xee, 0xa3, 0xcf, 0x3e, 0xcf, 0x41, 0x74,
  0x47, 0x1f, 0xe5, 0xe4, 0xe6, 0x2d, 0xc6, 0x9f, 0x67, 0xe0, 0x7f, 0x48,
  0x00, 0x00, 0x06, 0x00, 0x08, 0x00, 0x04, 0x00, 0x06, 0x00, 0x00, 0x00,
  0x04, 0x00, 0x00, 0x00, 0x04, 0x00, 0x00, 0x00, 0x00, 0x00, 0x00, 0x00,
  0x54, 0xff, 0xff, 0xff, 0x58, 0xff, 0xff, 0xff, 0x0f, 0x00, 0x00, 0x00,
  0x4d, 0x4c, 0x49, 0x52, 0x20, 0x43, 0x6f, 0x6e, 0x76, 0x65, 0x72, 0x74,
  0x65, 0x64, 0x2e, 0x00, 0x01, 0x00, 0x00, 0x00, 0x14, 0x00, 0x00, 0x00,
  0x00, 0x00, 0x0e, 0x00, 0x18, 0x00, 0x14, 0x00, 0x10, 0x00, 0x0c, 0x00,
  0x08, 0x00, 0x04, 0x00, 0x0e, 0x00, 0x00, 0x00, 0x14, 0x00, 0x00, 0x00,
  0x1c, 0x00, 0x00, 0x00, 0x0c, 0x01, 0x00, 0x00, 0x10, 0x01, 0x00, 0x00,
  0x14, 0x01, 0x00, 0x00, 0x04, 0x00, 0x00, 0x00, 0x6d, 0x61, 0x69, 0x6e,
  0x00, 0x00, 0x00, 0x00, 0x04, 0x00, 0x00, 0x00, 0xb4, 0x00, 0x00, 0x00,
  0x6c, 0x00, 0x00, 0x00, 0x34, 0x00, 0x00, 0x00, 0x10, 0x00, 0x00, 0x00,
  0x00, 0x00, 0x0a, 0x00, 0x10, 0x00, 0x0c, 0x00, 0x08, 0x00, 0x04, 0x00,
  0x0a, 0x00, 0x00, 0x00, 0x0c, 0x00, 0x00, 0x00, 0x10, 0x00, 0x00, 0x00,
  0x01, 0x00, 0x00, 0x00, 0x01, 0x00, 0x00, 0x00, 0x0a, 0x00, 0x00, 0x00,
  0x01, 0x00, 0x00, 0x00, 0x09, 0x00, 0x00, 0x00, 0x96, 0xff, 0xff, 0xff,
  0x14, 0x00, 0x00, 0x00, 0x00, 0x00, 0x00, 0x08, 0x10, 0x00, 0x00, 0x00,
  0x14, 0x00, 0x00, 0x00, 0x04, 0x00, 0x04, 0x00, 0x04, 0x00, 0x00, 0x00,
  0x01, 0x00, 0x00, 0x00, 0x09, 0x00, 0x00, 0x00, 0x03, 0x00, 0x00, 0x00,
  0x08, 0x00, 0x00, 0x00, 0x02, 0x00, 0x00, 0x00, 0x01, 0x00, 0x00, 0x00,
  0xca, 0xff, 0xff, 0xff, 0x10, 0x00, 0x00, 0x00, 0x00, 0x00, 0x00, 0x08,
  0x10, 0x00, 0x00, 0x00, 0x14, 0x00, 0x00, 0x00, 0xba, 0xff, 0xff, 0xff,
  0x00, 0x00, 0x00, 0x01, 0x01, 0x00, 0x00, 0x00, 0x08, 0x00, 0x00, 0x00,
  0x03, 0x00, 0x00, 0x00, 0x07, 0x00, 0x00, 0x00, 0x04, 0x00, 0x00, 0x00,
  0x03, 0x00, 0x00, 0x00, 0x00, 0x00, 0x0e, 0x00, 0x16, 0x00, 0x00, 0x00,
  0x10, 0x00, 0x0c, 0x00, 0x0b, 0x00, 0x04, 0x00, 0x0e, 0x00, 0x00, 0x00,
  0x18, 0x00, 0x00, 0x00, 0x00, 0x00, 0x00, 0x08, 0x18, 0x00, 0x00, 0x00,
  0x1c, 0x00, 0x00, 0x00, 0x00, 0x00, 0x06, 0x00, 0x08, 0x00, 0x07, 0x00,
  0x06, 0x00, 0x00, 0x00, 0x00, 0x00, 0x00, 0x01, 0x01, 0x00, 0x00, 0x00,
  0x07, 0x00, 0x00, 0x00, 0x03, 0x00, 0x00, 0x00, 0x00, 0x00, 0x00, 0x00,
  0x06, 0x00, 0x00, 0x00, 0x05, 0x00, 0x00, 0x00, 0x01, 0x00, 0x00, 0x00,
  0x0a, 0x00, 0x00, 0x00, 0x01, 0x00, 0x00, 0x00, 0x00, 0x00, 0x00, 0x00,
  0x0b, 0x00, 0x00, 0x00, 0xe0, 0x0d, 0x00, 0x00, 0x68, 0x0d, 0x00, 0x00,
  0xec, 0x0c, 0x00, 0x00, 0x18, 0x0b, 0x00, 0x00, 0x3c, 0x09, 0x00, 0x00,
  0xe8, 0x05, 0x00, 0x00, 0x8c, 0x02, 0x00, 0x00, 0xd8, 0x01, 0x00, 0x00,
  0x1c, 0x01, 0x00, 0x00, 0x80, 0x00, 0x00, 0x00, 0x04, 0x00, 0x00, 0x00,
  0x62, 0xf2, 0xff, 0xff, 0x00, 0x00, 0x00, 0x01, 0x18, 0x00, 0x00, 0x00,
  0x20, 0x00, 0x00, 0x00, 0x3c, 0x00, 0x00, 0x00, 0x0b, 0x00, 0x00, 0x00,
  0x00, 0x00, 0x00, 0x09, 0x50, 0x00, 0x00, 0x00, 0x02, 0x00, 0x00, 0x00,
  0xff, 0xff, 0xff, 0xff, 0x01, 0x00, 0x00, 0x00, 0x4c, 0xf2, 0xff, 0xff,
  0x08, 0x00, 0x00, 0x00, 0x10, 0x00, 0x00, 0x00, 0x01, 0x00, 0x00, 0x00,
  0x80, 0xff, 0xff, 0xff, 0xff, 0xff, 0xff, 0xff, 0x01, 0x00, 0x00, 0x00,
  0x00, 0x00, 0x80, 0x3b, 0x1b, 0x00, 0x00, 0x00, 0x53, 0x74, 0x61, 0x74,
  0x65, 0x66, 0x75, 0x6c, 0x50, 0x61, 0x72, 0x74, 0x69, 0x74, 0x69, 0x6f,
  0x6e, 0x65, 0x64, 0x43, 0x61, 0x6c, 0x6c, 0x5f, 0x31, 0x3a, 0x30, 0x00,
  0x02, 0x00, 0x00, 0x00, 0x01, 0x00, 0x00, 0x00, 0x01, 0x00, 0x00, 0x00,
  0xda, 0xf2, 0xff, 0xff, 0x00, 0x00, 0x00, 0x01, 0x18, 0x00, 0x00, 0x00,
  0x20, 0x00, 0x00, 0x00, 0x3c, 0x00, 0x00, 0x00, 0x0a, 0x00, 0x00, 0x00,
  0x00, 0x00, 0x00, 0x09, 0x70, 0x00, 0x00, 0x00, 0x02, 0x00, 0x00, 0x00,
  0xff, 0xff, 0xff, 0xff, 0x01, 0x00, 0x00, 0x00, 0xc4, 0xf2, 0xff, 0xff,
  0x08, 0x00, 0x00, 0x00, 0x10, 0x00, 0x00, 0x00, 0x01, 0x00, 0x00, 0x00,
  0x7f, 0x00, 0x00, 0x00, 0x00, 0x00, 0x00, 0x00, 0x01, 0x00, 0x00, 0x00,
  0x44, 0xc1, 0xb5, 0x43, 0x38, 0x00, 0x00, 0x00, 0x73, 0x65, 0x71, 0x75,
  0x65, 0x6e, 0x74, 0x69, 0x61, 0x6c, 0x5f, 0x31, 0x2f, 0x64, 0x65, 0x6e,
  0x73, 0x65, 0x5f, 0x32, 0x5f, 0x31, 0x2f, 0x4d, 0x61, 0x74, 0x4d, 0x75,
  0x6c, 0x3b, 0x73, 0x65, 0x71, 0x75, 0x65, 0x6e, 0x74, 0x69, 0x61, 0x6c,
  0x5f, 0x31, 0x2f, 0x64, 0x65, 0x6e, 0x73, 0x65, 0x5f, 0x32, 0x5f, 0x31,
  0x2f, 0x41, 0x64, 0x64, 0x00, 0x00, 0x00, 0x00, 0x02, 0x00, 0x00, 0x00,
  0x01, 0x00, 0x00, 0x00, 0x01, 0x00, 0x00, 0x00, 0x72, 0xf3, 0xff, 0xff,
  0x00, 0x00, 0x00, 0x01, 0x18, 0x00, 0x00, 0x00, 0x20, 0x00, 0x00, 0x00,
  0x3c, 0x00, 0x00, 0x00, 0x09, 0x00, 0x00, 0x00, 0x00, 0x00, 0x00, 0x09,
  0x90, 0x00, 0x00, 0x00, 0x02, 0x00, 0x00, 0x00, 0xff, 0xff, 0xff, 0xff,
  0x20, 0x00, 0x00, 0x00, 0x5c, 0xf3, 0xff, 0xff, 0x08, 0x00, 0x00, 0x00,
  0x10, 0x00, 0x00, 0x00, 0x01, 0x00, 0x00, 0x00, 0x80, 0xff, 0xff, 0xff,
  0xff, 0xff, 0xff, 0xff, 0x01, 0x00, 0x00, 0x00, 0x36, 0xf6, 0xb7, 0x43,
  0x58, 0x00, 0x00, 0x00, 0x73, 0x65, 0x71, 0x75, 0x65, 0x6e, 0x74, 0x69,
  0x61, 0x6c, 0x5f, 0x31, 0x2f, 0x64, 0x65, 0x6e, 0x73, 0x65, 0x5f, 0x31,
  0x5f, 0x32, 0x2f, 0x4d, 0x61, 0x74, 0x4d, 0x75, 0x6c, 0x3b, 0x73, 0x65,
  0x71, 0x75, 0x65, 0x6e, 0x74, 0x69, 0x61, 0x6c, 0x5f, 0x31, 0x2f, 0x64,
  0x65, 0x6e, 0x73, 0x65, 0x5f, 0x31, 0x5f, 0x32, 0x2f, 0x52, 0x65, 0x6c,
  0x75, 0x3b, 0x73, 0x65, 0x71, 0x75, 0x65, 0x6e, 0x74, 0x69, 0x61, 0x6c,
  0x5f, 0x31, 0x2f, 0x64, 0x65, 0x6e, 0x73, 0x65, 0x5f, 0x31, 0x5f, 0x32,
  0x2f, 0x42, 0x69, 0x61, 0x73, 0x41, 0x64, 0x64, 0x00, 0x00, 0x00, 0x00,
  0x02, 0x00, 0x00, 0x00, 0x01, 0x00, 0x00, 0x00, 0x20, 0x00, 0x00, 0x00,
  0x2a, 0xf4, 0xff, 0xff, 0x00, 0x00, 0x00, 0x01, 0x18, 0x00, 0x00, 0x00,
  0x20, 0x00, 0x00, 0x00, 0x3c, 0x00, 0x00, 0x00, 0x08, 0x00, 0x00, 0x00,
  0x00, 0x00, 0x00, 0x09, 0x88, 0x00, 0x00, 0x00, 0x02, 0x00, 0x00, 0x00,
  0xff, 0xff, 0xff, 0xff, 0x40, 0x00, 0x00, 0x00, 0x14, 0xf4, 0xff, 0xff,
  0x08, 0x00, 0x00, 0x00, 0x10, 0x00, 0x00, 0x00, 0x01, 0x00, 0x00, 0x00,
  0x80, 0xff, 0xff, 0xff, 0xff, 0xff, 0xff, 0xff, 0x01, 0x00, 0x00, 0x00,
  0x30, 0xbb, 0xa2, 0x43, 0x52, 0x00, 0x00, 0x00, 0x73, 0x65, 0x71, 0x75,
  0x65, 0x6e, 0x74, 0x69, 0x61, 0x6c, 0x5f, 0x31, 0x2f, 0x64, 0x65, 0x6e,
  0x73, 0x65, 0x5f, 0x31, 0x2f, 0x4d, 0x61, 0x74, 0x4d, 0x75, 0x6c, 0x3b,
  0x73, 0x65, 0x71, 0x75, 0x65, 0x6e, 0x74, 0x69, 0x61, 0x6c, 0x5f, 0x31,
  0x2f, 0x64, 0x65, 0x6e, 0x73, 0x65, 0x5f, 0x31, 0x2f, 0x52, 0x65, 0x6c,
  0x75, 0x3b, 0x73, 0x65, 0x71, 0x75, 0x65, 0x6e, 0x74, 0x69, 0x61, 0x6c,
  0x5f, 0x31, 0x2f, 0x64, 0x65, 0x6e, 0x73, 0x65, 0x5f, 0x31, 0x2f, 0x42,
  0x69, 0x61, 0x73, 0x41, 0x64, 0x64, 0x00, 0x00, 0x02, 0x00, 0x00, 0x00,
  0x01, 0x00, 0x00, 0x00, 0x40, 0x00, 0x00, 0x00, 0x4e, 0xf5, 0xff, 0xff,
  0x00, 0x00, 0x00, 0x01, 0x14, 0x00, 0x00, 0x00, 0x28, 0x03, 0x00, 0x00,
  0x07, 0x00, 0x00, 0x00, 0x00, 0x00, 0x00, 0x09, 0x34, 0x03, 0x00, 0x00,
  0xb4, 0xf4, 0xff, 0xff, 0x08, 0x00, 0x00, 0x00, 0x0c, 0x02, 0x00, 0x00,
  0x40, 0x00, 0x00, 0x00, 0x00, 0x00, 0x00, 0x00, 0x00, 0x00, 0x00, 0x00,
  0x00, 0x00, 0x00, 0x00, 0x00, 0x00, 0x00, 0x00, 0x00, 0x00, 0x00, 0x00,
  0x00, 0x00, 0x00, 0x00, 0x00, 0x00, 0x00, 0x00, 0x00, 0x00, 0x00, 0x00,
  0x00, 0x00, 0x00, 0x00, 0x00, 0x00, 0x00, 0x00, 0x00, 0x00, 0x00, 0x00,
  0x00, 0x00, 0x00, 0x00, 0x00, 0x00, 0x00, 0x00, 0x00, 0x00, 0x00, 0x00,
  0x00, 0x00, 0x00, 0x00, 0x00, 0x00, 0x00, 0x00, 0x00, 0x00, 0x00, 0x00,
  0x00, 0x00, 0x00, 0x00, 0x00, 0x00, 0x00, 0x00, 0x00, 0x00, 0x00, 0x00,
  0x00, 0x00, 0x00, 0x00, 0x00, 0x00, 0x00, 0x00, 0x00, 0x00, 0x00, 0x00,
  0x00, 0x00, 0x00, 0x00, 0x00, 0x00, 0x00, 0x00, 0x00, 0x00, 0x00, 0x00,
  0x00, 0x00, 0x00, 0x00, 0x00, 0x00, 0x00, 0x00, 0x00, 0x00, 0x00, 0x00,
  0x00, 0x00, 0x00, 0x00, 0x00, 0x00, 0x00, 0x00, 0x00, 0x00, 0x00, 0x00,
  0x00, 0x00, 0x00, 0x00, 0x00, 0x00, 0x00, 0x00, 0x00, 0x00, 0x00, 0x00,
  0x00, 0x00, 0x00, 0x00, 0x00, 0x00, 0x00, 0x00, 0x00, 0x00, 0x00, 0x00,
  0x00, 0x00, 0x00, 0x00, 0x00, 0x00, 0x00, 0x00, 0x00, 0x00, 0x00, 0x00,
  0x00, 0x00, 0x00, 0x00, 0x00, 0x00, 0x00, 0x00, 0x00, 0x00, 0x00, 0x00,
  0x00, 0x00, 0x00, 0x00, 0x00, 0x00, 0x00, 0x00, 0x00, 0x00, 0x00, 0x00,
  0x00, 0x00, 0x00, 0x00, 0x00, 0x00, 0x00, 0x00, 0x00, 0x00, 0x00, 0x00,
  0x00, 0x00, 0x00, 0x00, 0x00, 0x00, 0x00, 0x00, 0x00, 0x00, 0x00, 0x00,
  0x00, 0x00, 0x00, 0x00, 0x00, 0x00, 0x00, 0x00, 0x00, 0x00, 0x00, 0x00,
  0x00, 0x00, 0x00, 0x00, 0x00, 0x00, 0x00, 0x00, 0x00, 0x00, 0x00, 0x00,
  0x00, 0x00, 0x00, 0x00, 0x00, 0x00, 0x00, 0x00, 0x00, 0x00, 0x00, 0x00,
  0x00, 0x00, 0x00, 0x00, 0x00, 0x00, 0x00, 0x00, 0x00, 0x00, 0x00, 0x00,
  0x00, 0x00, 0x00, 0x00, 0x00, 0x00, 0x00, 0x00, 0x00, 0x00, 0x00, 0x00,
  0x00, 0x00, 0x00, 0x00, 0x00, 0x00, 0x00, 0x00, 0x00, 0x00, 0x00, 0x00,
  0x00, 0x00, 0x00, 0x00, 0x00, 0x00, 0x00, 0x00, 0x00, 0x00, 0x00, 0x00,
  0x00, 0x00, 0x00, 0x00, 0x00, 0x00, 0x00, 0x00, 0x00, 0x00, 0x00, 0x00,
  0x00, 0x00, 0x00, 0x00, 0x00, 0x00, 0x00, 0x00, 0x00, 0x00, 0x00, 0x00,
  0x00, 0x00, 0x00, 0x00, 0x00, 0x00, 0x00, 0x00, 0x00, 0x00, 0x00, 0x00,
  0x00, 0x00, 0x00, 0x00, 0x00, 0x00, 0x00, 0x00, 0x00, 0x00, 0x00, 0x00,
  0x00, 0x00, 0x00, 0x00, 0x00, 0x00, 0x00, 0x00, 0x00, 0x00, 0x00, 0x00,
  0x00, 0x00, 0x00, 0x00, 0x00, 0x00, 0x00, 0x00, 0x00, 0x00, 0x00, 0x00,
  0x00, 0x00, 0x00, 0x00, 0x00, 0x00, 0x00, 0x00, 0x00, 0x00, 0x00, 0x00,
  0x00, 0x00, 0x00, 0x00, 0x00, 0x00, 0x00, 0x00, 0x00, 0x00, 0x00, 0x00,
  0x00, 0x00, 0x00, 0x00, 0x00, 0x00, 0x00, 0x00, 0x00, 0x00, 0x00, 0x00,
  0x00, 0x00, 0x00, 0x00, 0x00, 0x00, 0x00, 0x00, 0x00, 0x00, 0x00, 0x00,
  0x00, 0x00, 0x00, 0x00, 0x00, 0x00, 0x00, 0x00, 0x00, 0x00, 0x00, 0x00,
  0x00, 0x00, 0x00, 0x00, 0x00, 0x00, 0x00, 0x00, 0x00, 0x00, 0x00, 0x00,
  0x00, 0x00, 0x00, 0x00, 0x00, 0x00, 0x00, 0x00, 0x00, 0x00, 0x00, 0x00,
  0x00, 0x00, 0x00, 0x00, 0x00, 0x00, 0x00, 0x00, 0x00, 0x00, 0x00, 0x00,
  0x00, 0x00, 0x00, 0x00, 0x00, 0x00, 0x00, 0x00, 0x00, 0x00, 0x00, 0x00,
  0x00, 0x00, 0x00, 0x00, 0x00, 0x00, 0x00, 0x00, 0x00, 0x00, 0x00, 0x00,
  0x00, 0x00, 0x00, 0x00, 0x00, 0x00, 0x00, 0x00, 0x00, 0x00, 0x00, 0x00,
  0x00, 0x00, 0x00, 0x00, 0x00, 0x00, 0x00, 0x00, 0x00, 0x00, 0x00, 0x00,
  0x00, 0x00, 0x00, 0x00, 0x40, 0x00, 0x00, 0x00, 0xf3, 0x83, 0x97, 0x3b,
  0x79, 0x65, 0x88, 0x3b, 0xb3, 0xdd, 0xea, 0x3b, 0xdb, 0x33, 0x98, 0x3b,
  0xdb, 0xa2, 0x8f, 0x3b, 0x9b, 0xd0, 0x18, 0x3c, 0x3d, 0x52, 0x9d, 0x3b,
  0xcc, 0xe6, 0xc2, 0x3b, 0x1d, 0x54, 0x9b, 0x3b, 0xfb, 0x99, 0xce, 0x3b,
  0x0c, 0xb5, 0x91, 0x3b, 0xd8, 0x96, 0xc9, 0x3b, 0x1c, 0xd2, 0x65, 0x3b,
  0x62, 0xcf, 0xaf, 0x3b, 0x76, 0xec, 0xdc, 0x3b, 0x69, 0x36, 0xc2, 0x3b,
  0x94, 0xab, 0xa2, 0x3b, 0x3a, 0x48, 0xc6, 0x3b, 0xc1, 0xb3, 0x8e, 0x3b,
  0x58, 0x77, 0x8a, 0x3b, 0xe3, 0x10, 0xb2, 0x3b, 0x0e, 0x75, 0x84, 0x3b,
  0x46, 0x0e, 0x95, 0x3b, 0x94, 0xad, 0xcf, 0x3b, 0xff, 0x65, 0xd4, 0x3b,
  0xa3, 0x1c, 0xbb, 0x3b, 0x44, 0xee, 0x85, 0x3b, 0x70, 0x0d, 0xa9, 0x3b,
  0x8f, 0x5d, 0xc2, 0x3b, 0xbf, 0x7f, 0xa2, 0x3b, 0x4a, 0xac, 0x80, 0x3b,
  0x30, 0x9e, 0xd3, 0x3b, 0x7f, 0xc7, 0x78, 0x3b, 0xdf, 0x45, 0xcf, 0x3b,
  0x50, 0xb2, 0x8e, 0x3b, 0xc6, 0x4f, 0xb4, 0x3b, 0x39, 0xc6, 0x89, 0x3b,
  0xc6, 0x2d, 0xf1, 0x3b, 0x2f, 0xef, 0xc1, 0x3b, 0x65, 0x4c, 0xcb, 0x3b,
  0x79, 0x07, 0x8a, 0x3b, 0x6b, 0xd3, 0x85, 0x3b, 0xd5, 0x4a, 0xc1, 0x3b,
  0xcd, 0xe2, 0x8d, 0x3b, 0x4d, 0x50, 0xe8, 0x3b, 0x93, 0x81, 0x9c, 0x3b,
  0x4e, 0x70, 0xd4, 0x3b, 0x67, 0x6e, 0x4e, 0x3b, 0x3a, 0x11, 0x8e, 0x3b,
  0x02, 0xdf, 0x92, 0x3b, 0xc6, 0x53, 0x8e, 0x3b, 0x7d, 0x9b, 0xd8, 0x3b,
  0xe4, 0x8b, 0xe6, 0x3b, 0x83, 0x3b, 0xa0, 0x3b, 0x73, 0xfb, 0xa6, 0x3b,
  0x68, 0x65, 0xfd, 0x3b, 0x3e, 0x70, 0xa1, 0x3b, 0x49, 0x4f, 0x87, 0x3b,
  0x0e, 0xbb, 0x95, 0x3b, 0x65, 0xcc, 0x92, 0x3b, 0x53, 0xdd, 0x42, 0x3b,
  0x51, 0x6c, 0xaf, 0x3b, 0x4d, 0x2a, 0x65, 0x3b, 0x00, 0xc0, 0xb1, 0x3b,
  0x12, 0x00, 0x00, 0x00, 0x74, 0x66, 0x6c, 0x2e, 0x70, 0x73, 0x65, 0x75,
  0x64, 0x6f, 0x5f, 0x71, 0x63, 0x6f, 0x6e, 0x73, 0x74, 0x35, 0x00, 0x00,
  0x02, 0x00, 0x00, 0x00, 0x40, 0x00, 0x00, 0x00, 0x1e, 0x00, 0x00, 0x00,
  0xa6, 0xf8, 0xff, 0xff, 0x00, 0x00, 0x00, 0x01, 0x14, 0x00, 0x00, 0x00,
  0x24, 0x03, 0x00, 0x00, 0x06, 0x00, 0x00, 0x00, 0x00, 0x00, 0x00, 0x02,
  0x30, 0x03, 0x00, 0x00, 0x0c, 0xf8, 0xff, 0xff, 0x08, 0x00, 0x00, 0x00,
  0x08, 0x02, 0x00, 0x00, 0x40, 0x00, 0x00, 0x00, 0x00, 0x00, 0x00, 0x00,
  0x00, 0x00, 0x00, 0x00, 0x00, 0x00, 0x00, 0x00, 0x00, 0x00, 0x00, 0x00,
  0x00, 0x00, 0x00, 0x00, 0x00, 0x00, 0x00, 0x00, 0x00, 0x00, 0x00, 0x00,
  0x00, 0x00, 0x00, 0x00, 0x00, 0x00, 0x00, 0x00, 0x00, 0x00, 0x00, 0x00,
  0x00, 0x00, 0x00, 0x00, 0x00, 0x00, 0x00, 0x00, 0x00, 0x00, 0x00, 0x00,
  0x00, 0x00, 0x00, 0x00, 0x00, 0x00, 0x00, 0x00, 0x00, 0x00, 0x00, 0x00,
  0x00, 0x00, 0x00, 0x00, 0x00, 0x00, 0x00, 0x00, 0x00, 0x00, 0x00, 0x00,
  0x00, 0x00, 0x00, 0x00, 0x00, 0x00, 0x00, 0x00, 0x00, 0x00, 0x00, 0x00,
  0x00, 0x00, 0x00, 0x00, 0x00, 0x00, 0x00, 0x00, 0x00, 0x00, 0x00, 0x00,
  0x00, 0x00, 0x00, 0x00, 0x00, 0x00, 0x00, 0x00, 0x00, 0x00, 0x00, 0x00,
  0x00, 0x00, 0x00, 0x00, 0x00, 0x00, 0x00, 0x00, 0x00, 0x00, 0x00, 0x00,
  0x00, 0x00, 0x00, 0x00, 0x00, 0x00, 0x00, 0x00, 0x00, 0x00, 0x00, 0x00,
  0x00, 0x00, 0x00, 0x00, 0x00, 0x00, 0x00, 0x00, 0x00, 0x00, 0x00, 0x00,
  0x00, 0x00, 0x00, 0x00, 0x00, 0x00, 0x00, 0x00, 0x00, 0x00, 0x00, 0x00,
  0x00, 0x00, 0x00, 0x00, 0x00, 0x00, 0x00, 0x00, 0x00, 0x00, 0x00, 0x00,
  0x00, 0x00, 0x00, 0x00, 0x00, 0x00, 0x00, 0x00, 0x00, 0x00, 0x00, 0x00,
  0x00, 0x00, 0x00, 0x00, 0x00, 0x00, 0x00, 0x00, 0x00, 0x00, 0x00, 0x00,
  0x00, 0x00, 0x00, 0x00, 0x00, 0x00, 0x00, 0x00, 0x00, 0x00, 0x00, 0x00,
  0x00, 0x00, 0x00, 0x00, 0x00, 0x00, 0x00, 0x00, 0x00, 0x00, 0x00, 0x00,
  0x00, 0x00, 0x00, 0x00, 0x00, 0x00, 0x00, 0x00, 0x00, 0x00, 0x00, 0x00,
  0x00, 0x00, 0x00, 0x00, 0x00, 0x00, 0x00, 0x00, 0x00, 0x00, 0x00, 0x00,
  0x00, 0x00, 0x00, 0x00, 0x00, 0x00, 0x00, 0x00, 0x00, 0x00, 0x00, 0x00,
  0x00, 0x00, 0x00, 0x00, 0x00, 0x00, 0x00, 0x00, 0x00, 0x00, 0x00, 0x00,
  0x00, 0x00, 0x00, 0x00, 0x00, 0x00, 0x00, 0x00, 0x00, 0x00, 0x00, 0x00,
  0x00, 0x00, 0x00, 0x00, 0x00, 0x00, 0x00, 0x00, 0x00, 0x00, 0x00, 0x00,
  0x00, 0x00, 0x00, 0x00, 0x00, 0x00, 0x00, 0x00, 0x00, 0x00, 0x00, 0x00,
  0x00, 0x00, 0x00, 0x00, 0x00, 0x00, 0x00, 0x00, 0x00, 0x00, 0x00, 0x00,
  0x00, 0x00, 0x00, 0x00, 0x00, 0x00, 0x00, 0x00, 0x00, 0x00, 0x00, 0x00,
  0x00, 0x00, 0x00, 0x00, 0x00, 0x00, 0x00, 0x00, 0x00, 0x00, 0x00, 0x00,
  0x00, 0x00, 0x00, 0x00, 0x00, 0x00, 0x00, 0x00, 0x00, 0x00, 0x00, 0x00,
  0x00, 0x00, 0x00, 0x00, 0x00, 0x00, 0x00, 0x00, 0x00, 0x00, 0x00, 0x00,
  0x00, 0x00, 0x00, 0x00, 0x00, 0x00, 0x00, 0x00, 0x00, 0x00, 0x00, 0x00,
  0x00, 0x00, 0x00, 0x00, 0x00, 0x00, 0x00, 0x00, 0x00, 0x00, 0x00, 0x00,
  0x00, 0x00, 0x00, 0x00, 0x00, 0x00, 0x00, 0x00, 0x00, 0x00, 0x00, 0x00,
  0x00, 0x00, 0x00, 0x00, 0x00, 0x00, 0x00, 0x00, 0x00, 0x00, 0x00, 0x00,
  0x00, 0x00, 0x00, 0x00, 0x00, 0x00, 0x00, 0x00, 0x00, 0x00, 0x00, 0x00,
  0x00, 0x00, 0x00, 0x00, 0x00, 0x00, 0x00, 0x00, 0x00, 0x00, 0x00, 0x00,
  0x00, 0x00, 0x00, 0x00, 0x00, 0x00, 0x00, 0x00, 0x00, 0x00, 0x00, 0x00,
  0x00, 0x00, 0x00, 0x00, 0x00, 0x00, 0x00, 0x00, 0x00, 0x00, 0x00, 0x00,
  0x00, 0x00, 0x00, 0x00, 0x00, 0x00, 0x00, 0x00, 0x00, 0x00, 0x00, 0x00,
  0x00, 0x00, 0x00, 0x00, 0x00, 0x00, 0x00, 0x00, 0x00, 0x00, 0x00, 0x00,
  0x00, 0x00, 0x00, 0x00, 0x00, 0x00, 0x00, 0x00, 0x00, 0x00, 0x00, 0x00,
  0x00, 0x00, 0x00, 0x00, 0x00, 0x00, 0x00, 0x00, 0x00, 0x00, 0x00, 0x00,
  0x00, 0x00, 0x00, 0x00, 0x40, 0x00, 0x00, 0x00, 0x6a, 0x20, 0x00, 0x40,
  0xd1, 0xae, 0xe6, 0x3f, 0x58, 0x9c, 0x46, 0x40, 0x2b, 0xb5, 0x00, 0x40,
  0x62, 0xed, 0xf2, 0x3f, 0xb8, 0x39, 0x81, 0x40, 0x46, 0x09, 0x05, 0x40,
  0xbf, 0xd0, 0x24, 0x40, 0xe5, 0x59, 0x03, 0x40, 0x93, 0xb5, 0x2e, 0x40,
  0x14, 0x6e, 0xf6, 0x3f, 0x83, 0x78, 0x2a, 0x40, 0x22, 0x58, 0xc2, 0x3f,
  0xc8, 0xab, 0x14, 0x40, 0x13, 0xd2, 0x3a, 0x40, 0x96, 0x3b, 0x24, 0x40,
  0x3b, 0x8f, 0x09, 0x40, 0x95, 0xac, 0x27, 0x40, 0x00, 0x59, 0xf1, 0x3f,
  0xf8, 0x2e, 0xea, 0x3f, 0x23, 0x94, 0x16, 0x40, 0x4f, 0x05, 0xe0, 0x3f,
  0xe1, 0x17, 0xfc, 0x3f, 0xa1, 0x9e, 0x2f, 0x40, 0x82, 0x9c, 0x33, 0x40,
  0x6a, 0x3a, 0x1e, 0x40, 0x46, 0x83, 0xe2, 0x3f, 0xe1, 0xf4, 0x0e, 0x40,
  0xb1, 0x5c, 0x24, 0x40, 0x2b, 0x6a, 0x09, 0x40, 0xde, 0x9e, 0xd9, 0x3f,
  0x8b, 0xf3, 0x32, 0x40, 0x53, 0x60, 0xd2, 0x3f, 0xee, 0x46, 0x2f, 0x40,
  0x8f, 0x56, 0xf1, 0x3f, 0x48, 0x7a, 0x18, 0x40, 0x69, 0x03, 0xe9, 0x3f,
  0xf4, 0xf2, 0x4b, 0x40, 0x5b, 0xff, 0x23, 0x40, 0x85, 0xea, 0x2b, 0x40,
  0xc4, 0x71, 0xe9, 0x3f, 0xde, 0x55, 0xe2, 0x3f, 0x60, 0x74, 0x23, 0x40,
  0x9a, 0xf7, 0xef, 0x3f, 0xcf, 0x73, 0x44, 0x40, 0xd1, 0x58, 0x04, 0x40,
  0x3a, 0xa5, 0x33, 0x40, 0xb9, 0x90, 0xae, 0x3f, 0x1f, 0x46, 0xf0, 0x3f,
  0x03, 0x66, 0xf8, 0x3f, 0xab, 0xb6, 0xf0, 0x3f, 0xac, 0x2b, 0x37, 0x40,
  0x3c, 0xf5, 0x42, 0x40, 0x80, 0x7f, 0x07, 0x40, 0xb4, 0x34, 0x0d, 0x40,
  0xc9, 0x47, 0x56, 0x40, 0x93, 0x84, 0x08, 0x40, 0x53, 0xd8, 0xe4, 0x3f,
  0x19, 0x3c, 0xfd, 0x3f, 0x88, 0x46, 0xf8, 0x3f, 0xbc, 0xc8, 0xa4, 0x3f,
  0x02, 0x58, 0x14, 0x40, 0x3a, 0xca, 0xc1, 0x3f, 0xbd, 0x4f, 0x16, 0x40,
  0x12, 0x00, 0x00, 0x00, 0x74, 0x66, 0x6c, 0x2e, 0x70, 0x73, 0x65, 0x75,
  0x64, 0x6f, 0x5f, 0x71, 0x63, 0x6f, 0x6e, 0x73, 0x74, 0x34, 0x00, 0x00,
  0x01, 0x00, 0x00, 0x00, 0x40, 0x00, 0x00, 0x00, 0xf6, 0xfb, 0xff, 0xff,
  0x00, 0x00, 0x00, 0x01, 0x14, 0x00, 0x00, 0x00, 0xa8, 0x01, 0x00, 0x00,
  0x05, 0x00, 0x00, 0x00, 0x00, 0x00, 0x00, 0x09, 0xb4, 0x01, 0x00, 0x00,
  0x5c, 0xfb, 0xff, 0xff, 0x08, 0x00, 0x00, 0x00, 0x0c, 0x01, 0x00, 0x00,
  0x20, 0x00, 0x00, 0x00, 0x00, 0x00, 0x00, 0x00, 0x00, 0x00, 0x00, 0x00,
  0x00, 0x00, 0x00, 0x00, 0x00, 0x00, 0x00, 0x00, 0x00, 0x00, 0x00, 0x00,
  0x00, 0x00, 0x00, 0x00, 0x00, 0x00, 0x00, 0x00, 0x00, 0x00, 0x00, 0x00,
  0x00, 0x00, 0x00, 0x00, 0x00, 0x00, 0x00, 0x00, 0x00, 0x00, 0x00, 0x00,
  0x00, 0x00, 0x00, 0x00, 0x00, 0x00, 0x00, 0x00, 0x00, 0x00, 0x00, 0x00,
  0x00, 0x00, 0x00, 0x00, 0x00, 0x00, 0x00, 0x00, 0x00, 0x00, 0x00, 0x00,
  0x00, 0x00, 0x00, 0x00, 0x00, 0x00, 0x00, 0x00, 0x00, 0x00, 0x00, 0x00,
  0x00, 0x00, 0x00, 0x00, 0x00, 0x00, 0x00, 0x00, 0x00, 0x00, 0x00, 0x00,
  0x00, 0x00, 0x00, 0x00, 0x00, 0x00, 0x00, 0x00, 0x00, 0x00, 0x00, 0x00,
  0x00, 0x00, 0x00, 0x00, 0x00, 0x00, 0x00, 0x00, 0x00, 0x00, 0x00, 0x00,
  0x00, 0x00, 0x00, 0x00, 0x00, 0x00, 0x00, 0x00, 0x00, 0x00, 0x00, 0x00,
  0x00, 0x00, 0x00, 0x00, 0x00, 0x00, 0x00, 0x00, 0x00, 0x00, 0x00, 0x00,
  0x00, 0x00, 0x00, 0x00, 0x00, 0x00, 0x00, 0x00, 0x00, 0x00, 0x00, 0x00,
  0x00, 0x00, 0x00, 0x00, 0x00, 0x00, 0x00, 0x00, 0x00, 0x00, 0x00, 0x00,
  0x00, 0x00, 0x00, 0x00, 0x00, 0x00, 0x00, 0x00, 0x00, 0x00, 0x00, 0x00,
  0x00, 0x00, 0x00, 0x00, 0x00, 0x00, 0x00, 0x00, 0x00, 0x00, 0x00, 0x00,
  0x00, 0x00, 0x00, 0x00, 0x00, 0x00, 0x00, 0x00, 0x00, 0x00, 0x00, 0x00,
  0x00, 0x00, 0x00, 0x00, 0x00, 0x00, 0x00, 0x00, 0x00, 0x00, 0x00, 0x00,
  0x00, 0x00, 0x00, 0x00, 0x00, 0x00, 0x00, 0x00, 0x00, 0x00, 0x00, 0x00,
  0x00, 0x00, 0x00, 0x00, 0x00, 0x00, 0x00, 0x00, 0x00, 0x00, 0x00, 0x00,
  0x00, 0x00, 0x00, 0x00, 0x00, 0x00, 0x00, 0x00, 0x00, 0x00, 0x00, 0x00,
  0x00, 0x00, 0x00, 0x00, 0x00, 0x00, 0x00, 0x00, 0x00, 0x00, 0x00, 0x00,
  0x20, 0x00, 0x00, 0x00, 0x56, 0x77, 0xdb, 0x3b, 0xd1, 0x9b, 0xcb, 0x3b,
  0x7a, 0x21, 0x0c, 0x3c, 0xf9, 0xf8, 0x1c, 0x3c, 0xab, 0x98, 0xe8, 0x3b,
  0x18, 0x8a, 0xc8, 0x3b, 0x04, 0xc3, 0xd5, 0x3b, 0x8f, 0x55, 0xfc, 0x3b,
  0x6b, 0x22, 0xd9, 0x3b, 0x2e, 0x80, 0xec, 0x3b, 0x10, 0xa8, 0xdd, 0x3b,
  0x6e, 0xef, 0x00, 0x3c, 0xd2, 0xab, 0xb0, 0x3b, 0x08, 0xd4, 0xd5, 0x3b,
  0x82, 0xc0, 0x1b, 0x3c, 0xb8, 0x5a, 0xe4, 0x3b, 0x62, 0x06, 0xc9, 0x3b,
  0x9a, 0xff, 0xbf, 0x3b, 0xdb, 0x62, 0x15, 0x3c, 0x36, 0x7c, 0xe9, 0x3b,
  0xa0, 0xab, 0xd6, 0x3b, 0xa9, 0xde, 0xf9, 0x3b, 0x99, 0xac, 0xec, 0x3b,
  0x2b, 0xa3, 0x0a, 0x3c, 0x41, 0xf9, 0xb9, 0x3b, 0xfd, 0x8e, 0xde, 0x3b,
  0x9e, 0x68, 0xf0, 0x3b, 0x0a, 0x91, 0xc9, 0x3b, 0xe7, 0x33, 0x0b, 0x3c,
  0xc2, 0x08, 0xdb, 0x3b, 0x33, 0x80, 0x03, 0x3c, 0x3f, 0x54, 0xce, 0x3b,
  0x12, 0x00, 0x00, 0x00, 0x74, 0x66, 0x6c, 0x2e, 0x70, 0x73, 0x65, 0x75,
  0x64, 0x6f, 0x5f, 0x71, 0x63, 0x6f, 0x6e, 0x73, 0x74, 0x33, 0x00, 0x00,
  0x02, 0x00, 0x00, 0x00, 0x20, 0x00, 0x00, 0x00, 0x40, 0x00, 0x00, 0x00,
  0xce, 0xfd, 0xff, 0xff, 0x00, 0x00, 0x00, 0x01, 0x14, 0x00, 0x00, 0x00,
  0xa4, 0x01, 0x00, 0x00, 0x04, 0x00, 0x00, 0x00, 0x00, 0x00, 0x00, 0x02,
  0xb0, 0x01, 0x00, 0x00, 0x34, 0xfd, 0xff, 0xff, 0x08, 0x00, 0x00, 0x00,
  0x08, 0x01, 0x00, 0x00, 0x20, 0x00, 0x00, 0x00, 0x00, 0x00, 0x00, 0x00,
  0x00, 0x00, 0x00, 0x00, 0x00, 0x00, 0x00, 0x00, 0x00, 0x00, 0x00, 0x00,
  0x00, 0x00, 0x00, 0x00, 0x00, 0x00, 0x00, 0x00, 0x00, 0x00, 0x00, 0x00,
  0x00, 0x00, 0x00, 0x00, 0x00, 0x00, 0x00, 0x00, 0x00, 0x00, 0x00, 0x00,
  0x00, 0x00, 0x00, 0x00, 0x00, 0x00, 0x00, 0x00, 0x00, 0x00, 0x00, 0x00,
  0x00, 0x00, 0x00, 0x00, 0x00, 0x00, 0x00, 0x00, 0x00, 0x00, 0x00, 0x00,
  0x00, 0x00, 0x00, 0x00, 0x00, 0x00, 0x00, 0x00, 0x00, 0x00, 0x00, 0x00,
  0x00, 0x00, 0x00, 0x00, 0x00, 0x00, 0x00, 0x00, 0x00, 0x00, 0x00, 0x00,
  0x00, 0x00, 0x00, 0x00, 0x00, 0x00, 0x00, 0x00, 0x00, 0x00, 0x00, 0x00,
  0x00, 0x00, 0x00, 0x00, 0x00, 0x00, 0x00, 0x00, 0x00, 0x00, 0x00, 0x00,
  0x00, 0x00, 0x00, 0x00, 0x00, 0x00, 0x00, 0x00, 0x00, 0x00, 0x00, 0x00,
  0x00, 0x00, 0x00, 0x00, 0x00, 0x00, 0x00, 0x00, 0x00, 0x00, 0x00, 0x00,
  0x00, 0x00, 0x00, 0x00, 0x00, 0x00, 0x00, 0x00, 0x00, 0x00, 0x00, 0x00,
  0x00, 0x00, 0x00, 0x00, 0x00, 0x00, 0x00, 0x00, 0x00, 0x00, 0x00, 0x00,
  0x00, 0x00, 0x00, 0x00, 0x00, 0x00, 0x00, 0x00, 0x00, 0x00, 0x00, 0x00,
  0x00, 0x00, 0x00, 0x00, 0x00, 0x00, 0x00, 0x00, 0x00, 0x00, 0x00, 0x00,
  0x00, 0x00, 0x00, 0x00, 0x00, 0x00, 0x00, 0x00, 0x00, 0x00, 0x00, 0x00,
  0x00, 0x00, 0x00, 0x00, 0x00, 0x00, 0x00, 0x00, 0x00, 0x00, 0x00, 0x00,
  0x00, 0x00, 0x00, 0x00, 0x00, 0x00, 0x00, 0x00, 0x00, 0x00, 0x00, 0x00,
  0x00, 0x00, 0x00, 0x00, 0x00, 0x00, 0x00, 0x00, 0x00, 0x00, 0x00, 0x00,
  0x00, 0x00, 0x00, 0x00, 0x00, 0x00, 0x00, 0x00, 0x00, 0x00, 0x00, 0x00,
  0x00, 0x00, 0x00, 0x00, 0x00, 0x00, 0x00, 0x00, 0x00, 0x00, 0x00, 0x00,
  0x20, 0x00, 0x00, 0x00, 0xfe, 0x81, 0x0b, 0x40, 0x7b, 0x6d, 0x01, 0x40,
  0x4c, 0x27, 0x32, 0x40, 0xaa, 0x90, 0x47, 0x40, 0xaf, 0xda, 0x13, 0x40,
  0x0b, 0xf4, 0xfe, 0x3f, 0xb6, 0xe1, 0x07, 0x40, 0xa6, 0x66, 0x20, 0x40,
  0x8d, 0x06, 0x0a, 0x40, 0x0b, 0x56, 0x16, 0x40, 0x6d, 0xe6, 0x0c, 0x40,
  0x95, 0xeb, 0x23, 0x40, 0xd3, 0x9b, 0xe0, 0x3f, 0x87, 0xec, 0x07, 0x40,
  0x6a, 0x03, 0x46, 0x40, 0x62, 0x28, 0x11, 0x40, 0x0f, 0x92, 0xff, 0x3f,
  0x46, 0x18, 0xf4, 0x3f, 0x94, 0xeb, 0x3d, 0x40, 0x54, 0x6b, 0x14, 0x40,
  0x93, 0x75, 0x08, 0x40, 0x9b, 0xd5, 0x1e, 0x40, 0x47, 0x72, 0x16, 0x40,
  0x41, 0x41, 0x30, 0x40, 0x6e, 0x6f, 0xec, 0x3f, 0x38, 0x79, 0x0d, 0x40,
  0xfd, 0xd1, 0x18, 0x40, 0x2b, 0x21, 0x00, 0x40, 0x42, 0xf9, 0x30, 0x40,
  0xb3, 0x3b, 0x0b, 0x40, 0x8f, 0x2e, 0x27, 0x40, 0x2e, 0x28, 0x03, 0x40,
  0x12, 0x00, 0x00, 0x00, 0x74, 0x66, 0x6c, 0x2e, 0x70, 0x73, 0x65, 0x75,
  0x64, 0x6f, 0x5f, 0x71, 0x63, 0x6f, 0x6e, 0x73, 0x74, 0x32, 0x00, 0x00,
  0x01, 0x00, 0x00, 0x00, 0x20, 0x00, 0x00, 0x00, 0x9e, 0xff, 0xff, 0xff,
  0x00, 0x00, 0x00, 0x01, 0x14, 0x00, 0x00, 0x00, 0x30, 0x00, 0x00, 0x00,
  0x03, 0x00, 0x00, 0x00, 0x00, 0x00, 0x00, 0x09, 0x3c, 0x00, 0x00, 0x00,
  0x04, 0xff, 0xff, 0xff, 0x08, 0x00, 0x00, 0x00, 0x10, 0x00, 0x00, 0x00,
  0x01, 0x00, 0x00, 0x00, 0x00, 0x00, 0x00, 0x00, 0x00, 0x00, 0x00, 0x00,
  0x01, 0x00, 0x00, 0x00, 0xc8, 0x95, 0xec, 0x3b, 0x12, 0x00, 0x00, 0x00,
  0x74, 0x66, 0x6c, 0x2e, 0x70, 0x73, 0x65, 0x75, 0x64, 0x6f, 0x5f, 0x71,
  0x63, 0x6f, 0x6e, 0x73, 0x74, 0x31, 0x00, 0x00, 0x02, 0x00, 0x00, 0x00,
  0x01, 0x00, 0x00, 0x00, 0x20, 0x00, 0x00, 0x00, 0x00, 0x00, 0x16, 0x00,
  0x1c, 0x00, 0x18, 0x00, 0x17, 0x00, 0x10, 0x00, 0x0c, 0x00, 0x08, 0x00,
  0x00, 0x00, 0x00, 0x00, 0x00, 0x00, 0x07, 0x00, 0x16, 0x00, 0x00, 0x00,
  0x00, 0x00, 0x00, 0x01, 0x14, 0x00, 0x00, 0x00, 0x30, 0x00, 0x00, 0x00,
  0x02, 0x00, 0x00, 0x00, 0x00, 0x00, 0x00, 0x02, 0x3c, 0x00, 0x00, 0x00,
  0x7c, 0xff, 0xff, 0xff, 0x08, 0x00, 0x00, 0x00, 0x10, 0x00, 0x00, 0x00,
  0x01, 0x00, 0x00, 0x00, 0x00, 0x00, 0x00, 0x00, 0x00, 0x00, 0x00, 0x00,
  0x01, 0x00, 0x00, 0x00, 0x9c, 0x02, 0x2a, 0x40, 0x11, 0x00, 0x00, 0x00,
  0x74, 0x66, 0x6c, 0x2e, 0x70, 0x73, 0x65, 0x75, 0x64, 0x6f, 0x5f, 0x71,
  0x63, 0x6f, 0x6e, 0x73, 0x74, 0x00, 0x00, 0x00, 0x01, 0x00, 0x00, 0x00,
  0x01, 0x00, 0x00, 0x00, 0x00, 0x00, 0x16, 0x00, 0x20, 0x00, 0x1c, 0x00,
  0x1b, 0x00, 0x14, 0x00, 0x10, 0x00, 0x0c, 0x00, 0x00, 0x00, 0x00, 0x00,
  0x08, 0x00, 0x07, 0x00, 0x16, 0x00, 0x00, 0x00, 0x00, 0x00, 0x00, 0x01,
  0x18, 0x00, 0x00, 0x00, 0x2c, 0x00, 0x00, 0x00, 0x48, 0x00, 0x00, 0x00,
  0x01, 0x00, 0x00, 0x00, 0x00, 0x00, 0x00, 0x09, 0x60, 0x00, 0x00, 0x00,
  0x02, 0x00, 0x00, 0x00, 0xff, 0xff, 0xff, 0xff, 0x1e, 0x00, 0x00, 0x00,
  0x0c, 0x00, 0x0c, 0x00, 0x00, 0x00, 0x00, 0x00, 0x08, 0x00, 0x04, 0x00,
  0x0c, 0x00, 0x00, 0x00, 0x08, 0x00, 0x00, 0x00, 0x10, 0x00, 0x00, 0x00,
  0x01, 0x00, 0x00, 0x00, 0x81, 0xff, 0xff, 0xff, 0xff, 0xff, 0xff, 0xff,
  0x01, 0x00, 0x00, 0x00, 0x7b, 0x7b, 0xd8, 0x43, 0x1d, 0x00, 0x00, 0x00,
  0x73, 0x65, 0x72, 0x76, 0x69, 0x6e, 0x67, 0x5f, 0x64, 0x65, 0x66, 0x61,
  0x75, 0x6c, 0x74, 0x5f, 0x69, 0x6e, 0x70, 0x75, 0x74, 0x5f, 0x6c, 0x61,
  0x79, 0x65, 0x72, 0x3a, 0x30, 0x00, 0x00, 0x00, 0x02, 0x00, 0x00, 0x00,
  0x01, 0x00, 0x00, 0x00, 0x1e, 0x00, 0x00, 0x00, 0x02, 0x00, 0x00, 0x00,
  0x24, 0x00, 0x00, 0x00, 0x04, 0x00, 0x00, 0x00, 0xf0, 0xff, 0xff, 0xff,
  0x0e, 0x00, 0x00, 0x00, 0x02, 0x00, 0x00, 0x00, 0x00, 0x00, 0x00, 0x0e,
  0x0c, 0x00, 0x10, 0x00, 0x0f, 0x00, 0x00, 0x00, 0x08, 0x00, 0x04, 0x00,
  0x0c, 0x00, 0x00, 0x00, 0x09, 0x00, 0x00, 0x00, 0x04, 0x00, 0x00, 0x00,
  0x00, 0x00, 0x00, 0x09
};
const unsigned int fall_detection_model_tflite_len = 9112;
