#include "model_data.h"



const unsigned char fall_detection_model_tflite[] = {
  0x20, 0x00, 0x00, 0x00, 0x54, 0x46, 0x4c, 0x33, 0x00, 0x00, 0x00, 0x00,
  0x14, 0x00, 0x20, 0x00, 0x1c, 0x00, 0x18, 0x00, 0x14, 0x00, 0x10, 0x00,
  0x0c, 0x00, 0x00, 0x00, 0x08, 0x00, 0x04, 0x00, 0x14, 0x00, 0x00, 0x00,
  0x1c, 0x00, 0x00, 0x00, 0x8c, 0x00, 0x00, 0x00, 0x0c, 0x01, 0x00, 0x00,
  0x78, 0x13, 0x00, 0x00, 0x88, 0x13, 0x00, 0x00, 0x50, 0x23, 0x00, 0x00,
  0x03, 0x00, 0x00, 0x00, 0x01, 0x00, 0x00, 0x00, 0x04, 0x00, 0x00, 0x00,
  0x3a, 0xec, 0xff, 0xff, 0x0c, 0x00, 0x00, 0x00, 0x1c, 0x00, 0x00, 0x00,
  0x3c, 0x00, 0x00, 0x00, 0x0f, 0x00, 0x00, 0x00, 0x73, 0x65, 0x72, 0x76,
  0x69, 0x6e, 0x67, 0x5f, 0x64, 0x65, 0x66, 0x61, 0x75, 0x6c, 0x74, 0x00,
  0x01, 0x00, 0x00, 0x00, 0x04, 0x00, 0x00, 0x00, 0x68, 0xff, 0xff, 0xff,
  0x0a, 0x00, 0x00, 0x00, 0x04, 0x00, 0x00, 0x00, 0x08, 0x00, 0x00, 0x00,
  0x6f, 0x75, 0x74, 0x70, 0x75, 0x74, 0x5f, 0x30, 0x00, 0x00, 0x00, 0x00,
  0x01, 0x00, 0x00, 0x00, 0x04, 0x00, 0x00, 0x00, 0x0e, 0xed, 0xff, 0xff,
  0x04, 0x00, 0x00, 0x00, 0x0d, 0x00, 0x00, 0x00, 0x69, 0x6e, 0x70, 0x75,
  0x74, 0x5f, 0x6c, 0x61, 0x79, 0x65, 0x72, 0x5f, 0x33, 0x00, 0x00, 0x00,
  0x03, 0x00, 0x00, 0x00, 0x5c, 0x00, 0x00, 0x00, 0x2c, 0x00, 0x00, 0x00,
  0x04, 0x00, 0x00, 0x00, 0xb8, 0xff, 0xff, 0xff, 0x0e, 0x00, 0x00, 0x00,
  0x04, 0x00, 0x00, 0x00, 0x13, 0x00, 0x00, 0x00, 0x43, 0x4f, 0x4e, 0x56,
  0x45, 0x52, 0x53, 0x49, 0x4f, 0x4e, 0x5f, 0x4d, 0x45, 0x54, 0x41, 0x44,
  0x41, 0x54, 0x41, 0x00, 0xdc, 0xff, 0xff, 0xff, 0x0d, 0x00, 0x00, 0x00,
  0x04, 0x00, 0x00, 0x00, 0x13, 0x00, 0x00, 0x00, 0x6d, 0x69, 0x6e, 0x5f,
  0x72, 0x75, 0x6e, 0x74, 0x69, 0x6d, 0x65, 0x5f, 0x76, 0x65, 0x72, 0x73,
  0x69, 0x6f, 0x6e, 0x00, 0x08, 0x00, 0x0c, 0x00, 0x08, 0x00, 0x04, 0x00,
  0x08, 0x00, 0x00, 0x00, 0x0c, 0x00, 0x00, 0x00, 0x04, 0x00, 0x00, 0x00,
  0x13, 0x00, 0x00, 0x00, 0x6d, 0x69, 0x6e, 0x5f, 0x72, 0x75, 0x6e, 0x74,
  0x69, 0x6d, 0x65, 0x5f, 0x76, 0x65, 0x72, 0x73, 0x69, 0x6f, 0x6e, 0x00,
  0x0f, 0x00, 0x00, 0x00, 0x68, 0x12, 0x00, 0x00, 0x60, 0x12, 0x00, 0x00,
  0x4c, 0x12, 0x00, 0x00, 0x14, 0x12, 0x00, 0x00, 0x84, 0x11, 0x00, 0x00,
  0x74, 0x09, 0x00, 0x00, 0x64, 0x08, 0x00, 0x00, 0xd4, 0x00, 0x00, 0x00,
  0xcc, 0x00, 0x00, 0x00, 0xc4, 0x00, 0x00, 0x00, 0xbc, 0x00, 0x00, 0x00,
  0xb4, 0x00, 0x00, 0x00, 0x94, 0x00, 0x00, 0x00, 0x74, 0x00, 0x00, 0x00,
  0x04, 0x00, 0x00, 0x00, 0xee, 0xed, 0xff, 0xff, 0x04, 0x00, 0x00, 0x00,
  0x60, 0x00, 0x00, 0x00, 0x0c, 0x00, 0x00, 0x00, 0x08, 0x00, 0x0e, 0x00,
  0x08, 0x00, 0x04, 0x00, 0x08, 0x00, 0x00, 0x00, 0x10, 0x00, 0x00, 0x00,
  0x28, 0x00, 0x00, 0x00, 0x00, 0x00, 0x06, 0x00, 0x08, 0x00, 0x04, 0x00,
  0x06, 0x00, 0x00, 0x00, 0x04, 0x00, 0x00, 0x00, 0x01, 0x00, 0x00, 0x00,
  0xeb, 0x03, 0x00, 0x00, 0x0c, 0x00, 0x18, 0x00, 0x14, 0x00, 0x10, 0x00,
  0x0c, 0x00, 0x04, 0x00, 0x0c, 0x00, 0x00, 0x00, 0x39, 0xf6, 0x25, 0x5f,
  0xde, 0x59, 0x65, 0xd1, 0x02, 0x00, 0x00, 0x00, 0x02, 0x00, 0x00, 0x00,
  0x04, 0x00, 0x00, 0x00, 0x06, 0x00, 0x00, 0x00, 0x32, 0x2e, 0x31, 0x38,
  0x2e, 0x30, 0x00, 0x00, 0x5a, 0xee, 0xff, 0xff, 0x04, 0x00, 0x00, 0x00,
  0x10, 0x00, 0x00, 0x00, 0x00, 0x00, 0x00, 0x00, 0x00, 0x00, 0x00, 0x00,
  0x00, 0x00, 0x00, 0x00, 0x00, 0x00, 0x00, 0x00, 0x76, 0xee, 0xff, 0xff,
  0x04, 0x00, 0x00, 0x00, 0x10, 0x00, 0x00, 0x00, 0x31, 0x2e, 0x31, 0x34,
  0x2e, 0x30, 0x00, 0x00, 0x00, 0x00, 0x00, 0x00, 0x00, 0x00, 0x00, 0x00,
  0xd0, 0xed, 0xff, 0xff, 0xd4, 0xed, 0xff, 0xff, 0xd8, 0xed, 0xff, 0xff,
  0xdc, 0xed, 0xff, 0xff, 0xa2, 0xee, 0xff, 0xff, 0x04, 0x00, 0x00, 0x00,
  0x80, 0x07, 0x00, 0x00, 0xee, 0xfa, 0x51, 0xeb, 0xfd, 0x13, 0x04, 0xd7,
  0xe6, 0xf2, 0xda, 0x11, 0x6e, 0x23, 0x0d, 0xe8, 0x12, 0xe7, 0x7f, 0x14,
  0xd3, 0xfb, 0xf2, 0xe4, 0x16, 0x51, 0xd6, 0xed, 0x39, 0x33, 0xfe, 0x90,
  0x77, 0xfc, 0xfd, 0xcf, 0x3c, 0x5f, 0x60, 0x15, 0xff, 0x2e, 0xb9, 0xd4,
  0x17, 0xcf, 0xf8, 0xc6, 0xaa, 0xa5, 0x16, 0xa1, 0xbc, 0xef, 0x74, 0x0a,
  0x35, 0xf3, 0x81, 0xfd, 0x2b, 0xce, 0x3e, 0xd9, 0x3a, 0xa7, 0x18, 0x49,
  0x08, 0xfb, 0x2f, 0xd1, 0xd0, 0x06, 0x05, 0xb9, 0x25, 0x1d, 0x8f, 0x03,
  0x03, 0x27, 0x1c, 0x26, 0x7f, 0x39, 0x4e, 0x1e, 0x0f, 0x25, 0x0d, 0xcc,
  0x1b, 0xe3, 0xa6, 0x48, 0xe9, 0x3a, 0xe2, 0x37, 0x4d, 0xa0, 0xaa, 0x4e,
  0x11, 0xe0, 0xc5, 0xd3, 0x06, 0x7f, 0x97, 0x29, 0x40, 0x4a, 0xc0, 0x21,
  0xc5, 0x1c, 0x06, 0x30, 0x44, 0x6e, 0xfc, 0x7f, 0x00, 0x58, 0x77, 0x06,
  0x99, 0xf7, 0x36, 0x61, 0x2a, 0x3d, 0x32, 0x3e, 0x2d, 0xc9, 0xbe, 0x2f,
  0xe9, 0xfe, 0x2a, 0xf6, 0x36, 0x31, 0x2f, 0x91, 0x4c, 0xb7, 0x30, 0x16,
  0x0b, 0xfa, 0xdc, 0xe5, 0xe4, 0x00, 0x0c, 0x12, 0x0d, 0x1e, 0xf9, 0x08,
  0x02, 0x12, 0xe7, 0x00, 0xfc, 0xe0, 0xe9, 0x19, 0xf2, 0x13, 0x81, 0x17,
  0xf7, 0x0e, 0xda, 0xed, 0xd7, 0xf0, 0x6b, 0x30, 0xcb, 0xbf, 0x2c, 0xc4,
  0x45, 0x32, 0x11, 0x0f, 0x28, 0x41, 0xe3, 0x91, 0x38, 0x50, 0x6f, 0x3d,
  0x9e, 0x4e, 0x76, 0xe1, 0xfc, 0xc3, 0x81, 0xee, 0xe6, 0x32, 0xe5, 0xec,
  0xba, 0x1e, 0x5e, 0x4b, 0x7f, 0x31, 0xc6, 0xe1, 0xe2, 0xde, 0x83, 0xfa,
  0x40, 0x6a, 0x46, 0xd7, 0xea, 0x5a, 0xb0, 0xe6, 0xe3, 0x0c, 0x09, 0xdf,
  0xfa, 0xbb, 0xde, 0x10, 0xf3, 0xf6, 0xcc, 0xd2, 0xce, 0xf0, 0x15, 0x38,
  0xcf, 0x07, 0x31, 0xfe, 0xcc, 0x00, 0x2b, 0x1d, 0x10, 0x1c, 0xfe, 0x26,
  0x1c, 0xf4, 0x5a, 0xe4, 0xac, 0x04, 0x14, 0x7f, 0xc0, 0x0b, 0xbc, 0x2a,
  0xd0, 0xf8, 0x46, 0xb7, 0x3b, 0xb4, 0x81, 0xb9, 0x5d, 0x55, 0x4b, 0xc4,
  0x71, 0xfc, 0x40, 0xb5, 0x90, 0x3d, 0x89, 0x1c, 0x20, 0xfa, 0x61, 0x07,
  0x08, 0x22, 0x15, 0x28, 0x31, 0xfd, 0x38, 0xe8, 0xc7, 0xd4, 0x76, 0x08,
  0x2a, 0x47, 0xfa, 0x52, 0x3a, 0xc9, 0x21, 0xe1, 0xd4, 0xe9, 0x4a, 0x48,
  0xd0, 0x16, 0xe7, 0x2b, 0x39, 0xdd, 0x21, 0x0e, 0x7f, 0x03, 0x26, 0xe9,
  0xc2, 0xc1, 0xce, 0x1e, 0x2e, 0xf4, 0x16, 0xe8, 0x33, 0x02, 0xb3, 0x1a,
  0xf5, 0xf2, 0x7f, 0x37, 0xf2, 0x32, 0x0d, 0x20, 0x11, 0xce, 0x7e, 0x11,
  0x1c, 0xe5, 0xfc, 0x68, 0x8f, 0xe2, 0x5f, 0xcb, 0xdd, 0xda, 0xcd, 0xce,
  0xd6, 0x0f, 0x29, 0xcc, 0xe4, 0x2f, 0x20, 0xea, 0xe8, 0x25, 0x47, 0x38,
  0xfa, 0x4b, 0xb6, 0xd7, 0x0f, 0x41, 0xf3, 0x81, 0xe3, 0xef, 0x12, 0xe5,
  0x0a, 0x0a, 0x18, 0xf3, 0xf3, 0x23, 0x20, 0xea, 0x1c, 0xfa, 0x13, 0x02,
  0xfb, 0xbd, 0xe4, 0x29, 0x81, 0x35, 0x1c, 0x1e, 0xd6, 0x34, 0xff, 0x0d,
  0xf6, 0xf4, 0xfb, 0xf6, 0x81, 0x51, 0x69, 0x31, 0xf1, 0x1e, 0xdf, 0x0f,
  0xcf, 0x34, 0x08, 0xf2, 0xc3, 0x28, 0x0e, 0x1d, 0xca, 0x13, 0x12, 0x6f,
  0x01, 0xd7, 0x3a, 0x05, 0x13, 0x18, 0xfd, 0x9f, 0xd2, 0x04, 0xb1, 0xce,
  0x6a, 0x54, 0xfb, 0x64, 0x17, 0x37, 0xc6, 0xe6, 0x0c, 0x06, 0x01, 0xeb,
  0x05, 0xea, 0xf5, 0xa5, 0xfe, 0xed, 0x14, 0x09, 0xb2, 0x4e, 0x9d, 0x13,
  0xcb, 0x18, 0x7b, 0x81, 0xf4, 0x24, 0x23, 0xcd, 0x0f, 0x53, 0xff, 0x92,
  0xd9, 0xf0, 0x09, 0xf8, 0x22, 0x03, 0xf4, 0x32, 0xc0, 0xe2, 0x0d, 0xb5,
  0x0e, 0x26, 0xa8, 0x2a, 0x81, 0x41, 0x96, 0xfe, 0x29, 0x28, 0xa4, 0x17,
  0xef, 0xd9, 0x34, 0xd0, 0xba, 0xc3, 0xfd, 0x4d, 0x51, 0x29, 0x23, 0xfb,
  0x03, 0x1e, 0x9e, 0xfc, 0xd2, 0x7f, 0x50, 0x28, 0xe6, 0xe7, 0x50, 0xbf,
  0x1f, 0x01, 0xd3, 0xb7, 0xf3, 0xd7, 0x39, 0xc6, 0xd1, 0xfb, 0x2a, 0x0c,
  0xea, 0xd0, 0x27, 0xd5, 0x0d, 0x13, 0x20, 0xe3, 0x39, 0x15, 0x81, 0xe7,
  0x3f, 0x02, 0x0c, 0x45, 0xfd, 0xea, 0x31, 0xba, 0x03, 0xf6, 0x14, 0x42,
  0xf6, 0xed, 0xda, 0xca, 0x0f, 0x06, 0x01, 0xfe, 0x2f, 0x22, 0x3b, 0x1d,
  0x0d, 0xe4, 0xf4, 0xf3, 0x0c, 0x31, 0xc3, 0xaf, 0xed, 0x29, 0x02, 0xe7,
  0xdf, 0x81, 0xce, 0x1e, 0x81, 0x58, 0x1c, 0x03, 0xd2, 0xf1, 0x06, 0x07,
  0xbe, 0xc9, 0x0f, 0x20, 0x4a, 0x22, 0x13, 0x16, 0xe1, 0xdf, 0x65, 0x74,
  0x31, 0xd7, 0x61, 0x9f, 0x35, 0xe1, 0x28, 0xa9, 0x57, 0x30, 0xe2, 0x04,
  0xde, 0x07, 0x1d, 0x05, 0xcb, 0xd7, 0x21, 0x05, 0xd7, 0x49, 0xa4, 0x3c,
  0x07, 0x0e, 0xc5, 0xae, 0x04, 0xef, 0xc6, 0x01, 0xc5, 0x09, 0x81, 0x0b,
  0x5b, 0xea, 0xf5, 0xb7, 0xff, 0x11, 0x0d, 0xce, 0xe2, 0x0f, 0xd4, 0x13,
  0xd7, 0xa1, 0x22, 0x15, 0x53, 0x24, 0xf4, 0x3a, 0x0e, 0xf5, 0x7f, 0x90,
  0xe4, 0x1a, 0x16, 0xe7, 0x07, 0x83, 0x5b, 0x4e, 0x2b, 0x2c, 0x60, 0x10,
  0x31, 0x4a, 0x12, 0x0e, 0x12, 0xa7, 0x6b, 0x34, 0x40, 0xec, 0x10, 0x4a,
  0x53, 0x03, 0x78, 0x2f, 0xda, 0x15, 0x81, 0x18, 0x07, 0xc7, 0x55, 0xe4,
  0x50, 0xec, 0x05, 0xf1, 0xd6, 0xd0, 0x0e, 0x42, 0xef, 0x1d, 0x23, 0xff,
  0x0f, 0x11, 0x39, 0x0f, 0x2d, 0x15, 0x2e, 0xbc, 0xe3, 0x21, 0x81, 0xff,
  0x35, 0x3e, 0x21, 0x29, 0x07, 0xe9, 0xe2, 0x11, 0xdc, 0x14, 0xf0, 0xc2,
  0x50, 0x81, 0xde, 0x04, 0xab, 0x0f, 0xf5, 0xf1, 0x4c, 0xf6, 0x20, 0xc8,
  0xff, 0xbc, 0x23, 0x16, 0x1a, 0xb9, 0x34, 0xe3, 0x82, 0x26, 0x07, 0xd4,
  0x7d, 0x31, 0xd1, 0xfa, 0xde, 0xfd, 0xdb, 0x29, 0xcd, 0xee, 0xd7, 0x0b,
  0x1e, 0x27, 0x31, 0x33, 0xf2, 0x3e, 0x81, 0xf2, 0xbe, 0xed, 0xfd, 0xad,
  0x0c, 0x59, 0xa0, 0xc5, 0xe1, 0x04, 0x38, 0x13, 0x34, 0x98, 0x13, 0xe4,
  0x2a, 0x29, 0x17, 0xe3, 0x27, 0xc3, 0x01, 0x2f, 0x37, 0xb9, 0xe6, 0x16,
  0x05, 0x09, 0xf4, 0xcb, 0xe7, 0xe9, 0xf0, 0xe5, 0xf5, 0xd8, 0xbf, 0xdd,
  0xff, 0xef, 0x7f, 0x9d, 0x50, 0x42, 0xd6, 0x4b, 0x2e, 0x12, 0x39, 0x44,
  0x3d, 0xa7, 0x14, 0x5e, 0xf3, 0xe7, 0x18, 0x4a, 0x0c, 0x75, 0xea, 0x46,
  0xe5, 0x81, 0x34, 0x1c, 0x26, 0xd6, 0xee, 0xfc, 0xb9, 0x78, 0x0b, 0x07,
  0x39, 0x17, 0x28, 0xe7, 0x34, 0x16, 0xec, 0xf5, 0x16, 0x0f, 0x34, 0x17,
  0x2f, 0xd6, 0x05, 0xde, 0x81, 0x10, 0xfa, 0x09, 0xec, 0x3d, 0x28, 0x17,
  0x0e, 0x20, 0xe1, 0x16, 0xe0, 0xae, 0x34, 0xc5, 0x0b, 0x44, 0x91, 0x0a,
  0xe7, 0x10, 0xfe, 0x26, 0x0e, 0x30, 0xee, 0xef, 0xc3, 0x3b, 0x59, 0x81,
  0x4e, 0x07, 0xf7, 0xec, 0x32, 0xee, 0x30, 0xf9, 0xf9, 0xd1, 0x36, 0x11,
  0x0f, 0x06, 0xe7, 0x48, 0x29, 0x1b, 0xd3, 0xe5, 0x6c, 0x0c, 0x00, 0xca,
  0x32, 0x28, 0x22, 0x33, 0xe7, 0x66, 0xef, 0x15, 0x0e, 0x27, 0x24, 0x2b,
  0xba, 0xb0, 0xfb, 0x7f, 0x15, 0xa9, 0x7f, 0x1c, 0xf5, 0x0c, 0x62, 0xd0,
  0xc6, 0xe1, 0xdc, 0xe5, 0x2b, 0x68, 0x3b, 0x84, 0xf5, 0x61, 0x8f, 0x3b,
  0x19, 0x10, 0x40, 0xdf, 0x06, 0x35, 0x8c, 0x3b, 0x16, 0xd1, 0x22, 0xf9,
  0x03, 0x29, 0x24, 0x00, 0x0f, 0xd6, 0x1a, 0xe5, 0x05, 0xf0, 0xf9, 0x37,
  0x35, 0xe9, 0xe2, 0x36, 0xea, 0xfd, 0x81, 0x9e, 0x3d, 0x22, 0x1f, 0x19,
  0xc0, 0x2c, 0x0c, 0x22, 0x0e, 0x23, 0x32, 0x0e, 0x12, 0xfd, 0xbd, 0xe3,
  0x37, 0xe6, 0x36, 0x0f, 0x24, 0xdf, 0xe2, 0x2c, 0x04, 0x2d, 0x1d, 0x22,
  0x2d, 0x14, 0xde, 0xf0, 0x3f, 0x10, 0xdf, 0xc5, 0xb2, 0x81, 0xbc, 0x4c,
  0x59, 0x10, 0x2b, 0x2d, 0xd2, 0x20, 0x0d, 0xe8, 0xd5, 0x25, 0x32, 0x45,
  0x25, 0x10, 0xb9, 0xc0, 0xeb, 0x3f, 0x81, 0x9d, 0x7e, 0xe2, 0x61, 0x33,
  0xe7, 0x15, 0x05, 0x21, 0xc8, 0xd8, 0x55, 0x0b, 0xe5, 0xf9, 0x7f, 0x11,
  0xfa, 0x3d, 0x09, 0xe2, 0x13, 0xba, 0x02, 0xae, 0x0f, 0x37, 0xe5, 0x66,
  0x96, 0x3f, 0x45, 0xd6, 0x08, 0x58, 0xef, 0x5e, 0x4e, 0x2d, 0x54, 0x2a,
  0xcf, 0x36, 0x3b, 0xb4, 0x35, 0xfe, 0x33, 0x23, 0x33, 0x31, 0xef, 0xc0,
  0x04, 0x6e, 0x0c, 0x71, 0xe9, 0x5f, 0xf0, 0xe3, 0x40, 0xc3, 0xfe, 0xe2,
  0x2f, 0x23, 0xd8, 0x7f, 0xf5, 0x33, 0x1b, 0xf9, 0xe5, 0xdc, 0xfc, 0xf8,
  0x33, 0x15, 0xe4, 0xcb, 0xc0, 0x25, 0x81, 0xe4, 0x2e, 0x0a, 0x02, 0xe3,
  0x26, 0x25, 0xdb, 0xe1, 0xf8, 0xfa, 0xdd, 0x93, 0x4f, 0xba, 0x7f, 0xc4,
  0xc7, 0xdc, 0x46, 0xfe, 0x3c, 0xec, 0xfc, 0xc1, 0x25, 0x0e, 0xaa, 0xe7,
  0xfe, 0xe4, 0x28, 0x73, 0xde, 0x2d, 0x0c, 0xdf, 0x36, 0xfa, 0x0f, 0x18,
  0x04, 0xf9, 0x01, 0x61, 0xc5, 0x19, 0x4b, 0x1c, 0x25, 0x13, 0x40, 0x31,
  0x43, 0xb9, 0x06, 0xf8, 0xf8, 0xd4, 0x4d, 0xe4, 0xff, 0x2f, 0x44, 0x10,
  0x82, 0x7f, 0x5b, 0xb3, 0x08, 0x67, 0x81, 0x1c, 0x70, 0x3c, 0xde, 0x1b,
  0xf0, 0x0b, 0xe9, 0x0a, 0xed, 0xdd, 0xf7, 0x11, 0xf3, 0x16, 0xd0, 0x0f,
  0xed, 0x07, 0xf8, 0xf4, 0x0d, 0xed, 0xee, 0x22, 0x0e, 0xdc, 0xee, 0x04,
  0xfa, 0xbe, 0xed, 0x81, 0x14, 0x4c, 0x31, 0xc5, 0xe1, 0x29, 0x30, 0x26,
  0x10, 0xde, 0x40, 0xfc, 0xe7, 0xf3, 0x03, 0x59, 0x0f, 0x7f, 0x26, 0x55,
  0xe6, 0xf4, 0x4d, 0xd3, 0x9e, 0xfa, 0x15, 0x4f, 0x03, 0x5e, 0x50, 0xb8,
  0xf0, 0x45, 0x4c, 0xc5, 0x15, 0x11, 0xae, 0xa9, 0x12, 0x7f, 0xe7, 0xd5,
  0x3d, 0xd9, 0x70, 0x0a, 0xf4, 0x27, 0x0c, 0x2c, 0x08, 0x41, 0x72, 0x25,
  0xf1, 0xbc, 0xfd, 0x74, 0xf6, 0xdf, 0x59, 0xd8, 0xde, 0xf3, 0x24, 0x2a,
  0x38, 0x55, 0xf1, 0x27, 0x45, 0x48, 0x33, 0x15, 0x6f, 0xf0, 0xeb, 0x10,
  0x24, 0x2a, 0x09, 0xa5, 0xf3, 0x2c, 0x1f, 0x09, 0x1a, 0x7f, 0x3c, 0xe9,
  0xe1, 0x02, 0x36, 0x0f, 0x0d, 0xe5, 0xe5, 0xee, 0xf3, 0x2d, 0xeb, 0xfd,
  0x3d, 0x16, 0xcb, 0x46, 0xfd, 0x4a, 0x29, 0xad, 0x1e, 0x12, 0x19, 0xf7,
  0xd7, 0x3d, 0x46, 0x7f, 0x07, 0xef, 0x2f, 0x30, 0xe3, 0x52, 0x45, 0x2e,
  0x10, 0xfb, 0xda, 0x3b, 0x6a, 0xd8, 0x29, 0xac, 0xe2, 0xec, 0xe7, 0x6b,
  0x81, 0x2f, 0xd3, 0xdb, 0x42, 0xfb, 0xa5, 0x44, 0x34, 0x46, 0x40, 0x38,
  0xd8, 0x17, 0x19, 0xb4, 0x69, 0x12, 0xfa, 0x16, 0x33, 0x4c, 0xb6, 0x03,
  0xe3, 0x7f, 0xd7, 0x65, 0x0b, 0x29, 0xf9, 0xd0, 0x41, 0xf2, 0x41, 0x3e,
  0xdc, 0x14, 0x0d, 0x5e, 0xd8, 0xe9, 0xe3, 0x92, 0x17, 0x3f, 0xcf, 0x16,
  0x49, 0x16, 0xd6, 0x23, 0x0d, 0x58, 0x73, 0xfe, 0x81, 0xfe, 0x63, 0x1c,
  0xa7, 0xc3, 0x9f, 0x77, 0xfc, 0xa9, 0xb7, 0x0c, 0x70, 0x64, 0x87, 0x1c,
  0x30, 0x18, 0xe2, 0x18, 0xe7, 0x13, 0x1e, 0x3d, 0xfa, 0xe3, 0x7f, 0x3c,
  0xe9, 0x30, 0xec, 0xc5, 0x40, 0x32, 0xec, 0x23, 0x2e, 0xeb, 0x55, 0x52,
  0xb6, 0xbc, 0x2e, 0x26, 0xa9, 0xc7, 0x7f, 0x33, 0xec, 0x10, 0x3c, 0xfe,
  0xc7, 0x3c, 0x06, 0x34, 0x5a, 0xdd, 0x0d, 0x36, 0x37, 0xd5, 0x61, 0xd9,
  0x02, 0xfb, 0x07, 0x11, 0x14, 0x08, 0xff, 0xd2, 0x4e, 0x9a, 0xf7, 0xee,
  0x1a, 0x0d, 0xb6, 0x13, 0xeb, 0xd3, 0xde, 0xef, 0x35, 0xf6, 0xa6, 0x23,
  0xa2, 0xe7, 0xed, 0xc6, 0x08, 0xba, 0x03, 0x45, 0xfc, 0xef, 0xe4, 0x11,
  0x1c, 0x81, 0x38, 0xac, 0x02, 0x19, 0xd6, 0x1a, 0x0f, 0xda, 0x18, 0xd6,
  0x33, 0xee, 0x35, 0xef, 0x19, 0x30, 0xf1, 0x05, 0x1a, 0xef, 0x0e, 0x81,
  0x0c, 0x23, 0xdf, 0xff, 0xa5, 0x36, 0x00, 0xc3, 0xee, 0xd0, 0xe7, 0x3c,
  0x50, 0xe1, 0xec, 0x0b, 0xf1, 0xc6, 0x22, 0xde, 0x48, 0x11, 0x20, 0xd9,
  0x39, 0x2b, 0xce, 0x04, 0x7a, 0xca, 0x02, 0x31, 0x7f, 0x54, 0x61, 0xec,
  0xec, 0xf8, 0x4a, 0xc5, 0x7f, 0x19, 0x0c, 0x35, 0xe0, 0xc7, 0x13, 0xe4,
  0xcf, 0x1b, 0x28, 0xda, 0xb6, 0xc0, 0x4d, 0x61, 0x22, 0x64, 0xff, 0x30,
  0x34, 0xfa, 0x30, 0xf0, 0x81, 0x05, 0x28, 0xef, 0xc2, 0x17, 0xfe, 0x04,
  0xfa, 0x3b, 0x0f, 0x14, 0xe7, 0xc2, 0xf1, 0x1d, 0x15, 0xea, 0x13, 0xf9,
  0x02, 0x24, 0x31, 0xd7, 0xd4, 0x09, 0xc2, 0xfd, 0x21, 0xff, 0xfd, 0x05,
  0x89, 0x81, 0x41, 0xc2, 0x08, 0xed, 0xde, 0xe1, 0xd2, 0x0f, 0xf2, 0xef,
  0x30, 0x1b, 0xcc, 0x0d, 0x0b, 0xf2, 0xc1, 0x0a, 0xe0, 0xef, 0xf4, 0x81,
  0xcf, 0xf1, 0xbf, 0x0e, 0x2b, 0x15, 0x04, 0xe2, 0xf4, 0xeb, 0x2c, 0x1e,
  0x0b, 0xfc, 0xcb, 0x39, 0x7f, 0x45, 0x23, 0xaf, 0x47, 0xd0, 0x40, 0x23,
  0x42, 0xc9, 0xdd, 0x3a, 0xc4, 0x6d, 0xec, 0x63, 0xc1, 0x10, 0x22, 0x33,
  0x3a, 0x45, 0x50, 0x13, 0x30, 0x30, 0x0a, 0xff, 0x81, 0x55, 0xe2, 0x06,
  0xfb, 0x6e, 0xd4, 0x19, 0xc4, 0x12, 0x13, 0x99, 0x0b, 0xc1, 0x00, 0x40,
  0xa9, 0x27, 0xe8, 0xc1, 0x8a, 0x00, 0x74, 0xff, 0xed, 0xda, 0xd9, 0xf9,
  0xf2, 0x50, 0xde, 0x0d, 0x05, 0xea, 0xcb, 0xfa, 0xd0, 0x41, 0xe6, 0x0a,
  0xa3, 0xd3, 0x18, 0x04, 0x32, 0x81, 0x2e, 0x7c, 0x18, 0x20, 0x30, 0x40,
  0xba, 0x8e, 0x14, 0x8f, 0x94, 0x15, 0x39, 0xdd, 0xfb, 0xe7, 0x25, 0xc7,
  0x3f, 0xc4, 0x20, 0xea, 0x3e, 0x37, 0x00, 0x0b, 0xea, 0xd3, 0x10, 0x5b,
  0x52, 0x90, 0x47, 0x8e, 0x7f, 0xf3, 0x35, 0x92, 0xa4, 0x98, 0xfe, 0xf7,
  0xe7, 0xe9, 0xf6, 0x0e, 0xca, 0x00, 0x1d, 0xf6, 0xdc, 0x21, 0x05, 0xe4,
  0xab, 0xf8, 0x0c, 0xfc, 0xf8, 0x81, 0xee, 0x25, 0xf5, 0xe2, 0x0d, 0xfd,
  0x18, 0x0e, 0xe2, 0xf5, 0xfc, 0x27, 0x24, 0x23, 0xeb, 0xfa, 0x0f, 0xc4,
  0xec, 0x15, 0x11, 0x17, 0xbd, 0xf6, 0xf5, 0xc9, 0x25, 0xcb, 0x10, 0xf6,
  0xc5, 0xfb, 0xdd, 0x1e, 0xa7, 0x15, 0xd5, 0x81, 0xd6, 0xec, 0x12, 0x0e,
  0xf2, 0xdd, 0xf2, 0xbb, 0x2e, 0x31, 0x23, 0x0c, 0x0a, 0x36, 0xf2, 0x06,
  0x3f, 0x08, 0x3b, 0x0a, 0x01, 0x2b, 0xf8, 0xbb, 0x2d, 0x20, 0x2b, 0xca,
  0xe7, 0xcd, 0x0f, 0x7f, 0x2e, 0xf6, 0xff, 0xff, 0x04, 0x00, 0x00, 0x00,
  0x00, 0x01, 0x00, 0x00, 0x28, 0xfe, 0xff, 0xff, 0x21, 0xff, 0xff, 0xff,
  0xcd, 0xfb, 0xff, 0xff, 0x26, 0xfa, 0xff, 0xff, 0xa4, 0xff, 0xff, 0xff,
  0xd8, 0xff, 0xff, 0xff, 0x8f, 0xff, 0xff, 0xff, 0xcb, 0xff, 0xff, 0xff,
  0x75, 0xfc, 0xff, 0xff, 0x5f, 0xfc, 0xff, 0xff, 0x85, 0xfc, 0xff, 0xff,
  0x42, 0xf9, 0xff, 0xff, 0x0a, 0x03, 0x00, 0x00, 0xfa, 0xfd, 0xff, 0xff,
  0x3d, 0xfd, 0xff, 0xff, 0xe5, 0xfe, 0xff, 0xff, 0xdb, 0xfc, 0xff, 0xff,
  0xa5, 0xfb, 0xff, 0xff, 0x45, 0xf9, 0xff, 0xff, 0xfe, 0xfe, 0xff, 0xff,
  0xc2, 0xfe, 0xff, 0xff, 0x6a, 0xfa, 0xff, 0xff, 0x8b, 0xfd, 0xff, 0xff,
  0xd8, 0xfc, 0xff, 0xff, 0x80, 0xfc, 0xff, 0xff, 0xbc, 0xfb, 0xff, 0xff,
  0x3f, 0xfb, 0xff, 0xff, 0x26, 0xff, 0xff, 0xff, 0x57, 0xfc, 0xff, 0xff,
  0x14, 0xfe, 0xff, 0xff, 0x2a, 0xfd, 0xff, 0xff, 0x5d, 0xfc, 0xff, 0xff,
  0xe8, 0xfa, 0xff, 0xff, 0xfd, 0xff, 0xff, 0xff, 0xca, 0x00, 0x00, 0x00,
  0x33, 0xfb, 0xff, 0xff, 0x03, 0xfe, 0xff, 0xff, 0x1a, 0xfe, 0xff, 0xff,
  0x91, 0xfc, 0xff, 0xff, 0x77, 0xfe, 0xff, 0xff, 0xe2, 0xfb, 0xff, 0xff,
  0xd2, 0x00, 0x00, 0x00, 0x2e, 0xfd, 0xff, 0xff, 0x12, 0xfb, 0xff, 0xff,
  0x6d, 0xfe, 0xff, 0xff, 0xab, 0xfc, 0xff, 0xff, 0xa2, 0xf8, 0xff, 0xff,
  0x9f, 0xfe, 0xff, 0xff, 0x39, 0xfb, 0xff, 0xff, 0xa0, 0x02, 0x00, 0x00,
  0xb9, 0xfc, 0xff, 0xff, 0xd8, 0xfc, 0xff, 0xff, 0x5e, 0xfc, 0xff, 0xff,
  0xbc, 0xfe, 0xff, 0xff, 0x05, 0xfe, 0xff, 0xff, 0x64, 0xfe, 0xff, 0xff,
  0x51, 0xfe, 0xff, 0xff, 0x79, 0xfc, 0xff, 0xff, 0x75, 0x00, 0x00, 0x00,
  0xd6, 0xff, 0xff, 0xff, 0xf9, 0xfa, 0xff, 0xff, 0xce, 0xfd, 0xff, 0xff,
  0x71, 0xfd, 0xff, 0xff, 0x71, 0xfe, 0xff, 0xff, 0x3a, 0xf7, 0xff, 0xff,
  0x04, 0x00, 0x00, 0x00, 0x00, 0x08, 0x00, 0x00, 0x6c, 0x7e, 0x55, 0xf8,
  0x1e, 0x06, 0x4b, 0x2f, 0x05, 0xe7, 0xff, 0xbf, 0xc2, 0x5a, 0xe9, 0x1f,
  0x22, 0x43, 0x7f, 0xb4, 0xe8, 0xfe, 0x03, 0x1a, 0x19, 0x57, 0xa1, 0x06,
  0x87, 0x63, 0xbd, 0x23, 0xfb, 0xf3, 0x09, 0xe9, 0x39, 0xd4, 0x9d, 0x47,
  0x08, 0xa1, 0xad, 0xf2, 0x0d, 0xa9, 0xd1, 0xb1, 0xb6, 0x1f, 0x12, 0xfb,
  0xc1, 0xc6, 0xfc, 0xb4, 0x0a, 0xae, 0xb6, 0xf2, 0xf5, 0x4a, 0xc6, 0xa2,
  0x4f, 0x13, 0xee, 0xaa, 0x16, 0xf2, 0xef, 0x97, 0xad, 0xfb, 0x2a, 0xbb,
  0xca, 0x50, 0x47, 0xfc, 0xcd, 0xe5, 0x48, 0xda, 0x20, 0xf5, 0xfc, 0xe6,
  0x17, 0xe0, 0xf2, 0xc1, 0xb7, 0x56, 0x53, 0x92, 0x36, 0x3e, 0x07, 0xd8,
  0x0e, 0xb3, 0xff, 0xe5, 0xf9, 0x35, 0xe9, 0x81, 0x14, 0xa0, 0x0a, 0xe7,
  0xb8, 0x36, 0x4d, 0xef, 0xa0, 0x36, 0xe5, 0xfe, 0x9e, 0xf0, 0xd7, 0x22,
  0x27, 0xdf, 0xe7, 0x06, 0x81, 0xf6, 0xb3, 0xdf, 0x49, 0x0c, 0xdc, 0xf4,
  0x2f, 0x9e, 0x81, 0x14, 0x2a, 0xf7, 0x9e, 0x4e, 0x3e, 0xb5, 0x88, 0x07,
  0xf6, 0x49, 0xb6, 0x66, 0x0d, 0xe2, 0x36, 0x48, 0x25, 0xb5, 0x17, 0xc5,
  0x14, 0xda, 0x4d, 0xb1, 0xc5, 0xba, 0x2b, 0xf6, 0x99, 0x38, 0xec, 0xe0,
  0x37, 0xfa, 0xc0, 0xfb, 0x97, 0x88, 0xdd, 0x79, 0x37, 0xca, 0x30, 0x4d,
  0x16, 0xba, 0x44, 0x62, 0x9c, 0x04, 0xfa, 0x35, 0xb9, 0xc3, 0x17, 0xdc,
  0x42, 0x2e, 0x15, 0x2f, 0x33, 0x0e, 0xd8, 0x26, 0xf7, 0xa8, 0xf6, 0x46,
  0x2a, 0xe8, 0xc7, 0x40, 0xcd, 0xec, 0x1e, 0x21, 0xa8, 0xc2, 0x06, 0x36,
  0x18, 0xb9, 0x18, 0xd0, 0x05, 0x3d, 0x27, 0xb2, 0x30, 0x17, 0x0e, 0x24,
  0xf9, 0x5c, 0x36, 0x25, 0x2d, 0xf6, 0x02, 0x3d, 0x07, 0x96, 0xac, 0x7f,
  0x53, 0xb2, 0x43, 0x3b, 0xcb, 0x16, 0x43, 0xf9, 0xf9, 0xda, 0x5a, 0xee,
  0xd3, 0x9b, 0xa6, 0xf5, 0x2d, 0x29, 0xd2, 0x38, 0x3a, 0xad, 0xf1, 0xe2,
  0x66, 0xe1, 0xd4, 0x31, 0x0c, 0x83, 0xd6, 0x6e, 0xf4, 0x2b, 0xe4, 0xf0,
  0x06, 0xf8, 0x68, 0x3b, 0x43, 0xe7, 0xaa, 0x17, 0xf9, 0x51, 0xc2, 0xb7,
  0xbb, 0x18, 0x20, 0xf2, 0xe0, 0x54, 0x22, 0xfa, 0xea, 0x6e, 0xc0, 0x21,
  0xf9, 0xf6, 0xc8, 0x7f, 0x1f, 0x12, 0x5f, 0x16, 0x21, 0xb9, 0x2d, 0x2f,
  0x8f, 0xc9, 0xfd, 0x34, 0x2a, 0xd2, 0xcb, 0x0b, 0xcd, 0x97, 0xfa, 0xc2,
  0xd5, 0x2f, 0x0a, 0x81, 0xef, 0xeb, 0x30, 0x38, 0x04, 0x55, 0x40, 0x20,
  0x0e, 0xe9, 0xec, 0x14, 0x40, 0x43, 0xb6, 0x00, 0xe3, 0x51, 0x00, 0xde,
  0x47, 0x3c, 0x4b, 0x0e, 0x1f, 0xd1, 0xf8, 0x97, 0x4b, 0x3c, 0xfd, 0x98,
  0xe7, 0xbf, 0x4a, 0xdf, 0xff, 0xfd, 0xf9, 0xed, 0xb1, 0x0a, 0x06, 0x2f,
  0xc0, 0xda, 0x03, 0xf7, 0x1d, 0xbf, 0x0b, 0xe1, 0x3a, 0x64, 0xce, 0xd2,
  0x07, 0x96, 0x3c, 0xfb, 0xd6, 0x35, 0xf7, 0x81, 0x68, 0x61, 0x30, 0x15,
  0xbc, 0x10, 0x6a, 0x32, 0x52, 0xdf, 0xcb, 0xec, 0x3a, 0x35, 0xb8, 0xfd,
  0xd5, 0xf2, 0x33, 0xce, 0x5e, 0x30, 0x18, 0x03, 0x3a, 0xb2, 0xc2, 0xc2,
  0x57, 0x29, 0xf0, 0xb5, 0xb6, 0xed, 0x3c, 0xb1, 0xc2, 0x64, 0xf9, 0xc9,
  0xae, 0xe4, 0x05, 0x29, 0xe8, 0xdc, 0xc0, 0xdf, 0x5c, 0xb3, 0xf4, 0x11,
  0xa2, 0x14, 0xe0, 0xe5, 0xde, 0xe3, 0xbf, 0x17, 0x14, 0x1b, 0xb0, 0x0a,
  0x0e, 0xaa, 0x81, 0xf8, 0x31, 0xe9, 0xb9, 0x37, 0xe1, 0xe9, 0xd8, 0x20,
  0xcf, 0xfc, 0x54, 0x3f, 0x1d, 0x86, 0x00, 0x15, 0xdf, 0x42, 0x4b, 0xd2,
  0x9b, 0x2e, 0x47, 0x07, 0xbd, 0x38, 0xe9, 0x38, 0x18, 0x43, 0xfc, 0x1b,
  0xcc, 0xca, 0xc3, 0x62, 0x62, 0xce, 0x3c, 0x2d, 0xd9, 0xcd, 0x20, 0x35,
  0xda, 0x03, 0x25, 0x2f, 0xd8, 0x42, 0x2a, 0xa0, 0xf8, 0xf7, 0x85, 0xaa,
  0xc7, 0xee, 0xce, 0xdc, 0xc7, 0xe1, 0x88, 0x43, 0xfb, 0xdc, 0xc5, 0x7e,
  0x98, 0x04, 0xde, 0xde, 0xd1, 0x2d, 0x68, 0x60, 0x21, 0x0b, 0x3c, 0xaa,
  0xc8, 0xed, 0x49, 0x0c, 0xe6, 0x6f, 0xe0, 0xef, 0x34, 0x6a, 0x2d, 0x4e,
  0xec, 0x25, 0x0e, 0x63, 0xda, 0x00, 0xc0, 0x7f, 0xe6, 0x04, 0x36, 0x1b,
  0xfd, 0xe2, 0x00, 0xcc, 0xae, 0x2f, 0x1c, 0x40, 0x60, 0x68, 0xd5, 0xdd,
  0x2d, 0xe7, 0x02, 0x19, 0xc9, 0x05, 0xeb, 0xd6, 0x26, 0x39, 0xec, 0x32,
  0xc4, 0x21, 0x6a, 0xeb, 0xea, 0x99, 0x12, 0x06, 0x30, 0x44, 0xd6, 0x1e,
  0x08, 0x1b, 0x32, 0x0e, 0x12, 0xd1, 0xff, 0xef, 0xc8, 0x81, 0x1f, 0xe4,
  0xe8, 0xec, 0xb9, 0xf9, 0x0d, 0xb9, 0x1e, 0xc7, 0x27, 0x4a, 0x46, 0xc1,
  0xc6, 0x02, 0x01, 0x2a, 0x1b, 0x17, 0xb8, 0x0c, 0xe1, 0xb4, 0xc1, 0xcb,
  0xa3, 0xc5, 0xd6, 0xe7, 0x27, 0x08, 0xe2, 0x0f, 0x53, 0x0b, 0x17, 0xea,
  0xfe, 0xeb, 0x00, 0x26, 0xe2, 0xb8, 0xdd, 0x29, 0x81, 0xfc, 0x01, 0x04,
  0xd3, 0x13, 0xf0, 0x53, 0x48, 0xca, 0xfb, 0x32, 0x98, 0x39, 0xfd, 0x91,
  0xf2, 0x41, 0x65, 0xea, 0x2c, 0x1b, 0x2b, 0xf2, 0x37, 0x06, 0xed, 0x01,
  0x08, 0xa7, 0x9e, 0xfc, 0x3e, 0x9f, 0x60, 0x64, 0xd9, 0xf9, 0x01, 0x49,
  0xf2, 0xdd, 0x48, 0xdd, 0xe9, 0xf7, 0xd8, 0xde, 0x22, 0x87, 0x12, 0xf0,
  0x10, 0x05, 0x5c, 0x97, 0x4e, 0x28, 0x06, 0x6e, 0xf5, 0x7f, 0x7c, 0x1d,
  0x51, 0xdc, 0x0e, 0xdc, 0x7c, 0xe3, 0xc7, 0x69, 0x3a, 0x2b, 0x1c, 0xda,
  0xe6, 0x34, 0x1a, 0x0c, 0xec, 0xcb, 0xe3, 0xe9, 0xe6, 0x63, 0xc5, 0xd3,
  0xac, 0xc1, 0x30, 0x9b, 0xc4, 0x3c, 0x5e, 0xef, 0x83, 0x53, 0x05, 0x13,
  0xa9, 0xe9, 0x1b, 0x66, 0x53, 0xff, 0x2b, 0xe2, 0x81, 0x1d, 0xdc, 0x09,
  0x58, 0x26, 0xa2, 0xf8, 0x42, 0xb4, 0x97, 0x00, 0xf3, 0xb8, 0xad, 0x46,
  0x31, 0x01, 0x8d, 0x03, 0xd9, 0x0e, 0xc5, 0x67, 0x03, 0xe2, 0x15, 0x40,
  0x2d, 0x86, 0xff, 0x37, 0xce, 0x00, 0x39, 0xf5, 0xa3, 0x4c, 0x3e, 0xe4,
  0xdf, 0xfe, 0xee, 0xd7, 0xef, 0x31, 0xd3, 0x12, 0xf1, 0x36, 0xec, 0x71,
  0x72, 0xe1, 0x07, 0x55, 0xe7, 0xc3, 0x16, 0x41, 0xe8, 0x22, 0x55, 0x43,
  0xa1, 0xfd, 0xdb, 0x40, 0xcf, 0xf9, 0xaf, 0x15, 0x66, 0xcd, 0x82, 0xce,
  0x18, 0xdd, 0x9f, 0x38, 0x2b, 0xb2, 0x92, 0x27, 0xcb, 0xed, 0xda, 0x52,
  0x9d, 0xde, 0xfe, 0x41, 0x3d, 0xdb, 0xda, 0xf3, 0xc4, 0x57, 0x3f, 0xdf,
  0x95, 0x42, 0x69, 0x04, 0xa6, 0x46, 0xfd, 0x29, 0x1c, 0x6b, 0xbf, 0xda,
  0x27, 0x8f, 0x81, 0x79, 0xef, 0xbc, 0x38, 0x71, 0x14, 0xa4, 0x25, 0x58,
  0xbf, 0xe0, 0x1e, 0xfc, 0x30, 0xba, 0xd7, 0x13, 0xa9, 0x04, 0x48, 0xb0,
  0x30, 0x27, 0x1c, 0xef, 0xb6, 0x1c, 0xe1, 0x1f, 0x40, 0xdd, 0xe8, 0x01,
  0x18, 0x12, 0x27, 0xa9, 0x48, 0xe0, 0xd1, 0xb5, 0xc0, 0xea, 0xe0, 0xdf,
  0x01, 0x7f, 0xde, 0x09, 0x06, 0xfd, 0x11, 0xa2, 0xee, 0xe6, 0x0e, 0xdf,
  0xe4, 0xc8, 0x20, 0x0c, 0x9c, 0xe2, 0xf0, 0x1b, 0xcb, 0xc7, 0x27, 0xf5,
  0xb0, 0xbf, 0x2d, 0x34, 0x10, 0xe6, 0xe9, 0xf0, 0x33, 0x33, 0x18, 0x90,
  0xaf, 0xd8, 0xcf, 0xbb, 0x27, 0xfb, 0x2b, 0xbe, 0x65, 0x1f, 0xd4, 0xf1,
  0xd3, 0xfb, 0x09, 0xa8, 0xff, 0xd5, 0x21, 0x27, 0x31, 0xf8, 0x1b, 0x28,
  0xec, 0x4c, 0xe8, 0x16, 0x2f, 0xeb, 0xfb, 0x0d, 0x47, 0xcb, 0x2f, 0x90,
  0xdd, 0x45, 0x81, 0xfb, 0x2f, 0x29, 0xcf, 0x87, 0xfb, 0x27, 0x07, 0x1b,
  0xf5, 0xb3, 0x24, 0x30, 0x99, 0x15, 0x25, 0x00, 0x50, 0xb1, 0x10, 0xfc,
  0x42, 0x2b, 0xe2, 0xc0, 0xb4, 0xb5, 0xfd, 0xad, 0xc3, 0x28, 0xf8, 0xe4,
  0x58, 0x00, 0x17, 0x1f, 0xfa, 0x1a, 0x22, 0xee, 0x1b, 0xf1, 0x3a, 0x01,
  0x5a, 0x2a, 0xc5, 0x0a, 0xed, 0x21, 0x4a, 0xa2, 0x22, 0x17, 0x29, 0x00,
  0x33, 0x81, 0x20, 0xa0, 0x1b, 0x03, 0xb3, 0xb6, 0xfc, 0xf0, 0x4a, 0x87,
  0xf1, 0xf7, 0x2d, 0xf3, 0xda, 0x01, 0x18, 0x0f, 0x86, 0x28, 0x1b, 0x45,
  0x3b, 0xa0, 0xce, 0xc7, 0x31, 0x1e, 0xed, 0x08, 0x1e, 0xd7, 0x40, 0xe9,
  0x1f, 0x06, 0xd9, 0x81, 0x43, 0x37, 0x0b, 0xf9, 0xcd, 0x5e, 0xeb, 0xea,
  0x17, 0xb2, 0x17, 0xc8, 0x43, 0x3f, 0xd3, 0xec, 0x1b, 0xee, 0xd4, 0xe8,
  0x50, 0x10, 0x36, 0x36, 0x06, 0x0b, 0x09, 0x8c, 0x26, 0x1c, 0xd4, 0xc4,
  0xda, 0xb1, 0xe9, 0xd6, 0xef, 0xf6, 0xfd, 0x03, 0x9b, 0x1a, 0xef, 0x44,
  0x8d, 0x4c, 0x0d, 0x3d, 0x0c, 0xee, 0xf3, 0xc4, 0xf8, 0x14, 0xb9, 0x06,
  0xe4, 0x81, 0xf6, 0xec, 0xd5, 0x27, 0x06, 0xf6, 0x4f, 0x26, 0x70, 0x29,
  0x0d, 0x0d, 0xc4, 0x03, 0x53, 0x13, 0xe8, 0xb3, 0xbc, 0xf3, 0x0f, 0x26,
  0x2e, 0x39, 0x2c, 0x1a, 0xd9, 0xe2, 0x4a, 0x17, 0xfc, 0x0d, 0xd3, 0x8e,
  0x19, 0x1f, 0xec, 0xc2, 0xae, 0xd0, 0x02, 0xe3, 0xef, 0x2e, 0x1a, 0xe7,
  0xb4, 0x05, 0xe5, 0xdb, 0x88, 0x17, 0x21, 0x2e, 0xe7, 0xb5, 0xd9, 0xeb,
  0x03, 0xe4, 0x09, 0x2d, 0x49, 0x04, 0xd7, 0xeb, 0x65, 0xd7, 0x2a, 0xf0,
  0xed, 0x84, 0xee, 0xff, 0x2e, 0xd5, 0x92, 0x54, 0x97, 0xb0, 0xc0, 0x19,
  0xb6, 0xeb, 0x57, 0xfc, 0x47, 0xc9, 0x08, 0x32, 0x08, 0x7f, 0x66, 0xd0,
  0xfe, 0x53, 0x05, 0x24, 0xe0, 0xb7, 0x3b, 0xd3, 0xeb, 0x18, 0xd1, 0x44,
  0x3d, 0x0b, 0xc9, 0x11, 0x13, 0x10, 0x60, 0x2b, 0x37, 0xcc, 0xea, 0x09,
  0x0b, 0x8c, 0x1e, 0x02, 0xeb, 0x7f, 0x39, 0xc7, 0x25, 0x42, 0xbd, 0x05,
  0xdb, 0xe7, 0xe5, 0xe1, 0xa9, 0x20, 0x25, 0xf7, 0xb6, 0x51, 0x74, 0xb5,
  0xc7, 0x32, 0x05, 0xc9, 0x49, 0x24, 0xd0, 0xc8, 0x9f, 0x13, 0xea, 0xe5,
  0x10, 0xd5, 0xbb, 0xfd, 0xe3, 0xf5, 0xb9, 0x31, 0x1d, 0xd3, 0xfe, 0x22,
  0xa3, 0x9a, 0xd8, 0xc2, 0x03, 0x04, 0x15, 0xac, 0xb2, 0x07, 0xdb, 0xb9,
  0x48, 0x2d, 0xa6, 0x83, 0x14, 0x1b, 0xcc, 0xbd, 0xd3, 0xde, 0x01, 0x9b,
  0xdc, 0xad, 0xf4, 0xb6, 0xf6, 0xec, 0x5d, 0x81, 0x3b, 0x53, 0x1a, 0x20,
  0x02, 0x56, 0x3d, 0xd1, 0xeb, 0xba, 0xd4, 0x14, 0x5c, 0x14, 0xda, 0x41,
  0xfd, 0x3b, 0x13, 0xcc, 0x57, 0x3a, 0x27, 0xed, 0x42, 0xd2, 0xe3, 0x95,
  0x08, 0x12, 0xc3, 0xb5, 0x17, 0xd5, 0x38, 0xac, 0x06, 0x03, 0x38, 0x08,
  0xb5, 0x5b, 0x0a, 0x1d, 0xaf, 0xee, 0x1d, 0x2c, 0x0f, 0xd1, 0x13, 0xd0,
  0x37, 0x2d, 0xdc, 0xa7, 0xe1, 0xa9, 0x4a, 0xaa, 0xed, 0x15, 0x0d, 0x91,
  0xeb, 0x0c, 0x55, 0xf4, 0x0a, 0x30, 0x30, 0x2b, 0x05, 0x21, 0x1e, 0xf8,
  0x3a, 0x01, 0xfc, 0x07, 0xc8, 0x04, 0x26, 0xc6, 0xf6, 0x54, 0x4d, 0x3e,
  0x2c, 0xc3, 0x04, 0x81, 0x04, 0x49, 0xb3, 0xb9, 0x06, 0x04, 0x37, 0xe4,
  0xb5, 0x0e, 0x16, 0xe3, 0xbb, 0x02, 0xd5, 0x04, 0x9e, 0x38, 0xd5, 0x01,
  0xf1, 0xba, 0x21, 0xb3, 0x08, 0xc6, 0xeb, 0xca, 0xc8, 0x9e, 0xf2, 0xca,
  0xde, 0x10, 0xfd, 0xb6, 0x11, 0x39, 0x1f, 0x20, 0x2f, 0xd0, 0xd8, 0xea,
  0x44, 0xb6, 0x24, 0x0d, 0x13, 0x31, 0xf7, 0x29, 0xe6, 0x0d, 0x47, 0xb3,
  0xf4, 0x1a, 0x2e, 0x2d, 0x27, 0xa0, 0x2f, 0xca, 0x34, 0x28, 0xc3, 0xe8,
  0x1d, 0xe5, 0xdb, 0xe7, 0xf7, 0x40, 0xf6, 0x23, 0xf0, 0xf4, 0x0d, 0x28,
  0x82, 0x15, 0xf1, 0xf3, 0x23, 0x81, 0xee, 0xd2, 0x45, 0x08, 0xd5, 0x93,
  0xe9, 0x8e, 0x08, 0xa5, 0xda, 0x35, 0x13, 0x89, 0x15, 0x3c, 0x13, 0x04,
  0x1b, 0x7f, 0x0a, 0xb5, 0x08, 0xcd, 0x22, 0xf8, 0xfc, 0x0b, 0x05, 0x27,
  0xb3, 0x0d, 0x09, 0xb3, 0x6f, 0xf8, 0x4b, 0xc8, 0x24, 0xaf, 0x05, 0xcc,
  0xe1, 0xe8, 0xc1, 0xfc, 0x0b, 0x23, 0x53, 0xcc, 0x9e, 0x0b, 0x23, 0x2a,
  0x9f, 0x18, 0x17, 0xea, 0xb6, 0x30, 0x0d, 0x08, 0x03, 0xca, 0xfe, 0xae,
  0x05, 0x8f, 0xd3, 0xf0, 0xd7, 0xa0, 0xec, 0xcb, 0x16, 0xa8, 0x81, 0xe2,
  0x0e, 0xd3, 0x47, 0x06, 0x9b, 0xff, 0xb3, 0xdc, 0xf4, 0xcb, 0xfb, 0xf4,
  0x17, 0x18, 0xdd, 0xe4, 0x12, 0xc6, 0x30, 0xd2, 0xbd, 0x1f, 0xef, 0x02,
  0xb2, 0x16, 0xd3, 0xf4, 0xf9, 0x63, 0x1d, 0x97, 0x05, 0x12, 0x01, 0xdb,
  0x0b, 0x33, 0x2a, 0x00, 0xc3, 0x28, 0xe7, 0x0a, 0xe4, 0xe7, 0xd2, 0x60,
  0x5f, 0xf6, 0xca, 0x06, 0x1a, 0xb6, 0xc9, 0xc1, 0xea, 0x9a, 0xe0, 0xf3,
  0xdc, 0xe2, 0xf9, 0x81, 0x77, 0x37, 0x25, 0x04, 0x2a, 0x47, 0x43, 0x0c,
  0x1b, 0xae, 0xc7, 0x07, 0xbf, 0x3f, 0x03, 0x0e, 0xbb, 0xfb, 0x04, 0xb0,
  0x1c, 0xf4, 0x46, 0x05, 0xdd, 0xea, 0xf2, 0xcb, 0x70, 0x20, 0xe3, 0xdb,
  0x0f, 0xfc, 0xe5, 0xdb, 0xca, 0x18, 0x4f, 0xe3, 0xbb, 0x41, 0xfb, 0xf0,
  0x9f, 0x4d, 0xff, 0x2e, 0x05, 0xad, 0xbd, 0x08, 0xec, 0xbd, 0xc6, 0xb3,
  0x06, 0xaa, 0x3d, 0xc5, 0x2b, 0x36, 0x29, 0x96, 0xe4, 0xf0, 0x2b, 0x21,
  0xf3, 0x54, 0x09, 0x36, 0x0c, 0xe8, 0x34, 0xf3, 0x43, 0xeb, 0xd1, 0x37,
  0xdb, 0x27, 0x1f, 0xca, 0x02, 0x1a, 0x3c, 0x42, 0xf7, 0xf9, 0x16, 0xf7,
  0x14, 0x0d, 0xfd, 0x81, 0xde, 0x20, 0x0f, 0xf7, 0xce, 0x36, 0x18, 0x2b,
  0xce, 0x25, 0xd7, 0x11, 0xd6, 0xef, 0xac, 0x0d, 0x1f, 0xbd, 0x22, 0xdf,
  0x05, 0x0e, 0xca, 0x01, 0x1d, 0x3b, 0x0f, 0xec, 0x2d, 0xc1, 0x36, 0x35,
  0xd5, 0xb1, 0xdd, 0x04, 0x3a, 0xda, 0x84, 0x51, 0xd2, 0x14, 0xc6, 0x77,
  0xdd, 0xae, 0x1f, 0x02, 0x0c, 0x95, 0xcc, 0x40, 0x04, 0x39, 0x1d, 0x1e,
  0x08, 0x29, 0x70, 0xf5, 0xdf, 0x2d, 0x0e, 0xf5, 0xe8, 0x4c, 0xbf, 0x5f,
  0x3b, 0x04, 0xaf, 0x29, 0x7f, 0x0c, 0x2c, 0x0a, 0xf9, 0xee, 0x1e, 0x31,
  0xd9, 0x0e, 0x06, 0x09, 0xf0, 0x74, 0xf2, 0xd1, 0x11, 0xf6, 0x02, 0x33,
  0xf7, 0xd4, 0x19, 0xdd, 0x86, 0x45, 0x17, 0x2c, 0x25, 0x6a, 0x6c, 0x85,
  0x34, 0x00, 0x20, 0xb8, 0x16, 0x32, 0xaa, 0x00, 0xbe, 0x4f, 0x0b, 0x07,
  0xd5, 0x07, 0xb7, 0x2a, 0x34, 0xf2, 0x85, 0x0b, 0x07, 0xda, 0xc9, 0xef,
  0xa7, 0x81, 0xcc, 0x0a, 0xe7, 0xd0, 0x55, 0xbf, 0xed, 0x4a, 0xfb, 0xe0,
  0x27, 0x06, 0xe0, 0xbc, 0xf7, 0x31, 0xac, 0xa6, 0x26, 0x90, 0xa2, 0x10,
  0xfe, 0xfc, 0xc8, 0x20, 0x53, 0xb8, 0xa2, 0x23, 0x66, 0x08, 0x1b, 0x4e,
  0xd8, 0xd2, 0xf1, 0x6d, 0x12, 0x1b, 0x19, 0xdd, 0xc5, 0x9e, 0x58, 0x38,
  0x55, 0xf6, 0x95, 0xf3, 0xf1, 0x0f, 0x81, 0xd4, 0xaa, 0xd0, 0x5e, 0x21,
  0xb5, 0x3f, 0x07, 0xdc, 0x12, 0x17, 0xcd, 0x02, 0xf6, 0xac, 0xb0, 0x24,
  0x21, 0x19, 0x14, 0x3e, 0xef, 0xbd, 0x09, 0x18, 0x8e, 0xdd, 0x61, 0x4f,
  0xe6, 0x1f, 0xd4, 0x09, 0x4b, 0x20, 0xa5, 0xeb, 0x41, 0xe0, 0xc4, 0x06,
  0x34, 0xd0, 0x14, 0x10, 0x37, 0xfa, 0xaf, 0x18, 0xf7, 0xeb, 0xb4, 0x4b,
  0xe8, 0xb5, 0x7a, 0x11, 0x6f, 0x89, 0xe3, 0x25, 0x02, 0x50, 0x11, 0xe7,
  0xad, 0x49, 0x12, 0x02, 0xbc, 0xf8, 0xd3, 0x01, 0x01, 0x15, 0x03, 0x2f,
  0xde, 0xd1, 0xf9, 0x37, 0x7f, 0x0e, 0x24, 0x2f, 0x29, 0xce, 0x45, 0x0f,
  0x1a, 0x2a, 0x2a, 0x46, 0x46, 0xff, 0xff, 0xff, 0x04, 0x00, 0x00, 0x00,
  0x80, 0x00, 0x00, 0x00, 0x7e, 0x02, 0x00, 0x00, 0x26, 0x03, 0x00, 0x00,
  0x3e, 0x03, 0x00, 0x00, 0xdc, 0x04, 0x00, 0x00, 0x63, 0x05, 0x00, 0x00,
  0xa0, 0xfe, 0xff, 0xff, 0xdd, 0x03, 0x00, 0x00, 0x5e, 0x05, 0x00, 0x00,
  0x6a, 0x06, 0x00, 0x00, 0x6a, 0x02, 0x00, 0x00, 0xac, 0x06, 0x00, 0x00,
  0x52, 0xff, 0xff, 0xff, 0xf9, 0x06, 0x00, 0x00, 0xea, 0x03, 0x00, 0x00,
  0x0b, 0xfe, 0xff, 0xff, 0xff, 0xfd, 0xff, 0xff, 0x34, 0x02, 0x00, 0x00,
  0xeb, 0xfa, 0xff, 0xff, 0xb9, 0xff, 0xff, 0xff, 0x94, 0x05, 0x00, 0x00,
  0x92, 0x02, 0x00, 0x00, 0xd0, 0x02, 0x00, 0x00, 0x7e, 0x02, 0x00, 0x00,
  0x89, 0xfe, 0xff, 0xff, 0xcc, 0x00, 0x00, 0x00, 0x15, 0xfe, 0xff, 0xff,
  0x12, 0x04, 0x00, 0x00, 0x3f, 0x02, 0x00, 0x00, 0x9c, 0x05, 0x00, 0x00,
  0x83, 0x03, 0x00, 0x00, 0x5e, 0x06, 0x00, 0x00, 0x32, 0x06, 0x00, 0x00,
  0xd2, 0xff, 0xff, 0xff, 0x04, 0x00, 0x00, 0x00, 0x20, 0x00, 0x00, 0x00,
  0x27, 0x65, 0x81, 0xd6, 0xb8, 0x4a, 0x39, 0x86, 0xca, 0x3e, 0xa3, 0x2b,
  0xa0, 0x85, 0x50, 0x4e, 0x4f, 0x59, 0x51, 0xc7, 0x54, 0x72, 0x4d, 0x3e,
  0x50, 0x43, 0x56, 0x5c, 0xbd, 0x60, 0x9b, 0xa9, 0x00, 0x00, 0x06, 0x00,
  0x08, 0x00, 0x04, 0x00, 0x06, 0x00, 0x00, 0x00, 0x04, 0x00, 0x00, 0x00,
  0x04, 0x00, 0x00, 0x00, 0xa3, 0xfb, 0xff, 0xff, 0x54, 0xff, 0xff, 0xff,
  0x58, 0xff, 0xff, 0xff, 0x0f, 0x00, 0x00, 0x00, 0x4d, 0x4c, 0x49, 0x52,
  0x20, 0x43, 0x6f, 0x6e, 0x76, 0x65, 0x72, 0x74, 0x65, 0x64, 0x2e, 0x00,
  0x01, 0x00, 0x00, 0x00, 0x14, 0x00, 0x00, 0x00, 0x00, 0x00, 0x0e, 0x00,
  0x18, 0x00, 0x14, 0x00, 0x10, 0x00, 0x0c, 0x00, 0x08, 0x00, 0x04, 0x00,
  0x0e, 0x00, 0x00, 0x00, 0x14, 0x00, 0x00, 0x00, 0x1c, 0x00, 0x00, 0x00,
  0x0c, 0x01, 0x00, 0x00, 0x10, 0x01, 0x00, 0x00, 0x14, 0x01, 0x00, 0x00,
  0x04, 0x00, 0x00, 0x00, 0x6d, 0x61, 0x69, 0x6e, 0x00, 0x00, 0x00, 0x00,
  0x04, 0x00, 0x00, 0x00, 0xb4, 0x00, 0x00, 0x00, 0x6c, 0x00, 0x00, 0x00,
  0x34, 0x00, 0x00, 0x00, 0x10, 0x00, 0x00, 0x00, 0x00, 0x00, 0x0a, 0x00,
  0x10, 0x00, 0x0c, 0x00, 0x08, 0x00, 0x04, 0x00, 0x0a, 0x00, 0x00, 0x00,
  0x0c, 0x00, 0x00, 0x00, 0x10, 0x00, 0x00, 0x00, 0x01, 0x00, 0x00, 0x00,
  0x01, 0x00, 0x00, 0x00, 0x0a, 0x00, 0x00, 0x00, 0x01, 0x00, 0x00, 0x00,
  0x09, 0x00, 0x00, 0x00, 0x96, 0xff, 0xff, 0xff, 0x14, 0x00, 0x00, 0x00,
  0x00, 0x00, 0x00, 0x08, 0x10, 0x00, 0x00, 0x00, 0x14, 0x00, 0x00, 0x00,
  0x04, 0x00, 0x04, 0x00, 0x04, 0x00, 0x00, 0x00, 0x01, 0x00, 0x00, 0x00,
  0x09, 0x00, 0x00, 0x00, 0x03, 0x00, 0x00, 0x00, 0x08, 0x00, 0x00, 0x00,
  0x02, 0x00, 0x00, 0x00, 0x01, 0x00, 0x00, 0x00, 0xca, 0xff, 0xff, 0xff,
  0x10, 0x00, 0x00, 0x00, 0x00, 0x00, 0x00, 0x08, 0x10, 0x00, 0x00, 0x00,
  0x14, 0x00, 0x00, 0x00, 0xba, 0xff, 0xff, 0xff, 0x00, 0x00, 0x00, 0x01,
  0x01, 0x00, 0x00, 0x00, 0x08, 0x00, 0x00, 0x00, 0x03, 0x00, 0x00, 0x00,
  0x07, 0x00, 0x00, 0x00, 0x04, 0x00, 0x00, 0x00, 0x03, 0x00, 0x00, 0x00,
  0x00, 0x00, 0x0e, 0x00, 0x16, 0x00, 0x00, 0x00, 0x10, 0x00, 0x0c, 0x00,
  0x0b, 0x00, 0x04, 0x00, 0x0e, 0x00, 0x00, 0x00, 0x18, 0x00, 0x00, 0x00,
  0x00, 0x00, 0x00, 0x08, 0x18, 0x00, 0x00, 0x00, 0x1c, 0x00, 0x00, 0x00,
  0x00, 0x00, 0x06, 0x00, 0x08, 0x00, 0x07, 0x00, 0x06, 0x00, 0x00, 0x00,
  0x00, 0x00, 0x00, 0x01, 0x01, 0x00, 0x00, 0x00, 0x07, 0x00, 0x00, 0x00,
  0x03, 0x00, 0x00, 0x00, 0x00, 0x00, 0x00, 0x00, 0x06, 0x00, 0x00, 0x00,
  0x05, 0x00, 0x00, 0x00, 0x01, 0x00, 0x00, 0x00, 0x0a, 0x00, 0x00, 0x00,
  0x01, 0x00, 0x00, 0x00, 0x00, 0x00, 0x00, 0x00, 0x0b, 0x00, 0x00, 0x00,
  0x00, 0x0e, 0x00, 0x00, 0x88, 0x0d, 0x00, 0x00, 0x0c, 0x0d, 0x00, 0x00,
  0x38, 0x0b, 0x00, 0x00, 0x5c, 0x09, 0x00, 0x00, 0x08, 0x06, 0x00, 0x00,
  0xac, 0x02, 0x00, 0x00, 0xe8, 0x01, 0x00, 0x00, 0x24, 0x01, 0x00, 0x00,
  0x80, 0x00, 0x00, 0x00, 0x04, 0x00, 0x00, 0x00, 0x42, 0xf2, 0xff, 0xff,
  0x00, 0x00, 0x00, 0x01, 0x18, 0x00, 0x00, 0x00, 0x20, 0x00, 0x00, 0x00,
  0x3c, 0x00, 0x00, 0x00, 0x0b, 0x00, 0x00, 0x00, 0x00, 0x00, 0x00, 0x09,
  0x50, 0x00, 0x00, 0x00, 0x02, 0x00, 0x00, 0x00, 0xff, 0xff, 0xff, 0xff,
  0x01, 0x00, 0x00, 0x00, 0x2c, 0xf2, 0xff, 0xff, 0x08, 0x00, 0x00, 0x00,
  0x10, 0x00, 0x00, 0x00, 0x01, 0x00, 0x00, 0x00, 0x80, 0xff, 0xff, 0xff,
  0xff, 0xff, 0xff, 0xff, 0x01, 0x00, 0x00, 0x00, 0x00, 0x00, 0x80, 0x3b,
  0x1b, 0x00, 0x00, 0x00, 0x53, 0x74, 0x61, 0x74, 0x65, 0x66, 0x75, 0x6c,
  0x50, 0x61, 0x72, 0x74, 0x69, 0x74, 0x69, 0x6f, 0x6e, 0x65, 0x64, 0x43,
  0x61, 0x6c, 0x6c, 0x5f, 0x31, 0x3a, 0x30, 0x00, 0x02, 0x00, 0x00, 0x00,
  0x01, 0x00, 0x00, 0x00, 0x01, 0x00, 0x00, 0x00, 0xba, 0xf2, 0xff, 0xff,
  0x00, 0x00, 0x00, 0x01, 0x18, 0x00, 0x00, 0x00, 0x20, 0x00, 0x00, 0x00,
  0x40, 0x00, 0x00, 0x00, 0x0a, 0x00, 0x00, 0x00, 0x00, 0x00, 0x00, 0x09,
  0x78, 0x00, 0x00, 0x00, 0x02, 0x00, 0x00, 0x00, 0xff, 0xff, 0xff, 0xff,
  0x01, 0x00, 0x00, 0x00, 0xa4, 0xf2, 0xff, 0xff, 0x08, 0x00, 0x00, 0x00,
  0x14, 0x00, 0x00, 0x00, 0x01, 0x00, 0x00, 0x00, 0xc2, 0xff, 0xff, 0xff,
  0xff, 0xff, 0xff, 0xff, 0x00, 0x00, 0x00, 0x00, 0x01, 0x00, 0x00, 0x00,
  0xd9, 0x2a, 0x39, 0x3e, 0x3e, 0x00, 0x00, 0x00, 0x73, 0x65, 0x71, 0x75,
  0x65, 0x6e, 0x74, 0x69, 0x61, 0x6c, 0x5f, 0x33, 0x5f, 0x31, 0x2f, 0x64,
  0x65, 0x6e, 0x73, 0x65, 0x5f, 0x31, 0x31, 0x5f, 0x31, 0x2f, 0x4d, 0x61,
  0x74, 0x4d, 0x75, 0x6c, 0x3b, 0x73, 0x65, 0x71, 0x75, 0x65, 0x6e, 0x74,
  0x69, 0x61, 0x6c, 0x5f, 0x33, 0x5f, 0x31, 0x2f, 0x64, 0x65, 0x6e, 0x73,
  0x65, 0x5f, 0x31, 0x31, 0x5f, 0x31, 0x2f, 0x41, 0x64, 0x64, 0x00, 0x00,
  0x02, 0x00, 0x00, 0x00, 0x01, 0x00, 0x00, 0x00, 0x01, 0x00, 0x00, 0x00,
  0x5a, 0xf3, 0xff, 0xff, 0x00, 0x00, 0x00, 0x01, 0x18, 0x00, 0x00, 0x00,
  0x20, 0x00, 0x00, 0x00, 0x3c, 0x00, 0x00, 0x00, 0x09, 0x00, 0x00, 0x00,
  0x00, 0x00, 0x00, 0x09, 0x98, 0x00, 0x00, 0x00, 0x02, 0x00, 0x00, 0x00,
  0xff, 0xff, 0xff, 0xff, 0x20, 0x00, 0x00, 0x00, 0x44, 0xf3, 0xff, 0xff,
  0x08, 0x00, 0x00, 0x00, 0x10, 0x00, 0x00, 0x00, 0x01, 0x00, 0x00, 0x00,
  0x80, 0xff, 0xff, 0xff, 0xff, 0xff, 0xff, 0xff, 0x01, 0x00, 0x00, 0x00,
  0x06, 0xb5, 0x25, 0x3d, 0x61, 0x00, 0x00, 0x00, 0x73, 0x65, 0x71, 0x75,
  0x65, 0x6e, 0x74, 0x69, 0x61, 0x6c, 0x5f, 0x33, 0x5f, 0x31, 0x2f, 0x64,
  0x65, 0x6e, 0x73, 0x65, 0x5f, 0x31, 0x30, 0x5f, 0x31, 0x2f, 0x4d, 0x61,
  0x74, 0x4d, 0x75, 0x6c, 0x3b, 0x73, 0x65, 0x71, 0x75, 0x65, 0x6e, 0x74,
  0x69, 0x61, 0x6c, 0x5f, 0x33, 0x5f, 0x31, 0x2f, 0x64, 0x65, 0x6e, 0x73,
  0x65, 0x5f, 0x31, 0x30, 0x5f, 0x31, 0x2f, 0x52, 0x65, 0x6c, 0x75, 0x3b,
  0x73, 0x65, 0x71, 0x75, 0x65, 0x6e, 0x74, 0x69, 0x61, 0x6c, 0x5f, 0x33,
  0x5f, 0x31, 0x2f, 0x64, 0x65, 0x6e, 0x73, 0x65, 0x5f, 0x31, 0x30, 0x5f,
  0x31, 0x2f, 0x42, 0x69, 0x61, 0x73, 0x41, 0x64, 0x64, 0x00, 0x00, 0x00,
  0x02, 0x00, 0x00, 0x00, 0x01, 0x00, 0x00, 0x00, 0x20, 0x00, 0x00, 0x00,
  0x1a, 0xf4, 0xff, 0xff, 0x00, 0x00, 0x00, 0x01, 0x18, 0x00, 0x00, 0x00,
  0x20, 0x00, 0x00, 0x00, 0x40, 0x00, 0x00, 0x00, 0x08, 0x00, 0x00, 0x00,
  0x00, 0x00, 0x00, 0x09, 0x98, 0x00, 0x00, 0x00, 0x02, 0x00, 0x00, 0x00,
  0xff, 0xff, 0xff, 0xff, 0x40, 0x00, 0x00, 0x00, 0x04, 0xf4, 0xff, 0xff,
  0x08, 0x00, 0x00, 0x00, 0x14, 0x00, 0x00, 0x00, 0x01, 0x00, 0x00, 0x00,
  0x80, 0xff, 0xff, 0xff, 0xff, 0xff, 0xff, 0xff, 0x00, 0x00, 0x00, 0x00,
  0x01, 0x00, 0x00, 0x00, 0x20, 0xbf, 0xb8, 0x3c, 0x5e, 0x00, 0x00, 0x00,
  0x73, 0x65, 0x71, 0x75, 0x65, 0x6e, 0x74, 0x69, 0x61, 0x6c, 0x5f, 0x33,
  0x5f, 0x31, 0x2f, 0x64, 0x65, 0x6e, 0x73, 0x65, 0x5f, 0x39, 0x5f, 0x31,
  0x2f, 0x4d, 0x61, 0x74, 0x4d, 0x75, 0x6c, 0x3b, 0x73, 0x65, 0x71, 0x75,
  0x65, 0x6e, 0x74, 0x69, 0x61, 0x6c, 0x5f, 0x33, 0x5f, 0x31, 0x2f, 0x64,
  0x65, 0x6e, 0x73, 0x65, 0x5f, 0x39, 0x5f, 0x31, 0x2f, 0x52, 0x65, 0x6c,
  0x75, 0x3b, 0x73, 0x65, 0x71, 0x75, 0x65, 0x6e, 0x74, 0x69, 0x61, 0x6c,
  0x5f, 0x33, 0x5f, 0x31, 0x2f, 0x64, 0x65, 0x6e, 0x73, 0x65, 0x5f, 0x39,
  0x5f, 0x31, 0x2f, 0x42, 0x69, 0x61, 0x73, 0x41, 0x64, 0x64, 0x00, 0x00,
  0x02, 0x00, 0x00, 0x00, 0x01, 0x00, 0x00, 0x00, 0x40, 0x00, 0x00, 0x00,
  0x4e, 0xf5, 0xff, 0xff, 0x00, 0x00, 0x00, 0x01, 0x14, 0x00, 0x00, 0x00,
  0x28, 0x03, 0x00, 0x00, 0x07, 0x00, 0x00, 0x00, 0x00, 0x00, 0x00, 0x09,
  0x34, 0x03, 0x00, 0x00, 0xb4, 0xf4, 0xff, 0xff, 0x08, 0x00, 0x00, 0x00,
  0x0c, 0x02, 0x00, 0x00, 0x40, 0x00, 0x00, 0x00, 0x00, 0x00, 0x00, 0x00,
  0x00, 0x00, 0x00, 0x00, 0x00, 0x00, 0x00, 0x00, 0x00, 0x00, 0x00, 0x00,
  0x00, 0x00, 0x00, 0x00, 0x00, 0x00, 0x00, 0x00, 0x00, 0x00, 0x00, 0x00,
  0x00, 0x00, 0x00, 0x00, 0x00, 0x00, 0x00, 0x00, 0x00, 0x00, 0x00, 0x00,
  0x00, 0x00, 0x00, 0x00, 0x00, 0x00, 0x00, 0x00, 0x00, 0x00, 0x00, 0x00,
  0x00, 0x00, 0x00, 0x00, 0x00, 0x00, 0x00, 0x00, 0x00, 0x00, 0x00, 0x00,
  0x00, 0x00, 0x00, 0x00, 0x00, 0x00, 0x00, 0x00, 0x00, 0x00, 0x00, 0x00,
  0x00, 0x00, 0x00, 0x00, 0x00, 0x00, 0x00, 0x00, 0x00, 0x00, 0x00, 0x00,
  0x00, 0x00, 0x00, 0x00, 0x00, 0x00, 0x00, 0x00, 0x00, 0x00, 0x00, 0x00,
  0x00, 0x00, 0x00, 0x00, 0x00, 0x00, 0x00, 0x00, 0x00, 0x00, 0x00, 0x00,
  0x00, 0x00, 0x00, 0x00, 0x00, 0x00, 0x00, 0x00, 0x00, 0x00, 0x00, 0x00,
  0x00, 0x00, 0x00, 0x00, 0x00, 0x00, 0x00, 0x00, 0x00, 0x00, 0x00, 0x00,
  0x00, 0x00, 0x00, 0x00, 0x00, 0x00, 0x00, 0x00, 0x00, 0x00, 0x00, 0x00,
  0x00, 0x00, 0x00, 0x00, 0x00, 0x00, 0x00, 0x00, 0x00, 0x00, 0x00, 0x00,
  0x00, 0x00, 0x00, 0x00, 0x00, 0x00, 0x00, 0x00, 0x00, 0x00, 0x00, 0x00,
  0x00, 0x00, 0x00, 0x00, 0x00, 0x00, 0x00, 0x00, 0x00, 0x00, 0x00, 0x00,
  0x00, 0x00, 0x00, 0x00, 0x00, 0x00, 0x00, 0x00, 0x00, 0x00, 0x00, 0x00,
  0x00, 0x00, 0x00, 0x00, 0x00, 0x00, 0x00, 0x00, 0x00, 0x00, 0x00, 0x00,
  0x00, 0x00, 0x00, 0x00, 0x00, 0x00, 0x00, 0x00, 0x00, 0x00, 0x00, 0x00,
  0x00, 0x00, 0x00, 0x00, 0x00, 0x00, 0x00, 0x00, 0x00, 0x00, 0x00, 0x00,
  0x00, 0x00, 0x00, 0x00, 0x00, 0x00, 0x00, 0x00, 0x00, 0x00, 0x00, 0x00,
  0x00, 0x00, 0x00, 0x00, 0x00, 0x00, 0x00, 0x00, 0x00, 0x00, 0x00, 0x00,
  0x00, 0x00, 0x00, 0x00, 0x00, 0x00, 0x00, 0x00, 0x00, 0x00, 0x00, 0x00,
  0x00, 0x00, 0x00, 0x00, 0x00, 0x00, 0x00, 0x00, 0x00, 0x00, 0x00, 0x00,
  0x00, 0x00, 0x00, 0x00, 0x00, 0x00, 0x00, 0x00, 0x00, 0x00, 0x00, 0x00,
  0x00, 0x00, 0x00, 0x00, 0x00, 0x00, 0x00, 0x00, 0x00, 0x00, 0x00, 0x00,
  0x00, 0x00, 0x00, 0x00, 0x00, 0x00, 0x00, 0x00, 0x00, 0x00, 0x00, 0x00,
  0x00, 0x00, 0x00, 0x00, 0x00, 0x00, 0x00, 0x00, 0x00, 0x00, 0x00, 0x00,
  0x00, 0x00, 0x00, 0x00, 0x00, 0x00, 0x00, 0x00, 0x00, 0x00, 0x00, 0x00,
  0x00, 0x00, 0x00, 0x00, 0x00, 0x00, 0x00, 0x00, 0x00, 0x00, 0x00, 0x00,
  0x00, 0x00, 0x00, 0x00, 0x00, 0x00, 0x00, 0x00, 0x00, 0x00, 0x00, 0x00,
  0x00, 0x00, 0x00, 0x00, 0x00, 0x00, 0x00, 0x00, 0x00, 0x00, 0x00, 0x00,
  0x00, 0x00, 0x00, 0x00, 0x00, 0x00, 0x00, 0x00, 0x00, 0x00, 0x00, 0x00,
  0x00, 0x00, 0x00, 0x00, 0x00, 0x00, 0x00, 0x00, 0x00, 0x00, 0x00, 0x00,
  0x00, 0x00, 0x00, 0x00, 0x00, 0x00, 0x00, 0x00, 0x00, 0x00, 0x00, 0x00,
  0x00, 0x00, 0x00, 0x00, 0x00, 0x00, 0x00, 0x00, 0x00, 0x00, 0x00, 0x00,
  0x00, 0x00, 0x00, 0x00, 0x00, 0x00, 0x00, 0x00, 0x00, 0x00, 0x00, 0x00,
  0x00, 0x00, 0x00, 0x00, 0x00, 0x00, 0x00, 0x00, 0x00, 0x00, 0x00, 0x00,
  0x00, 0x00, 0x00, 0x00, 0x00, 0x00, 0x00, 0x00, 0x00, 0x00, 0x00, 0x00,
  0x00, 0x00, 0x00, 0x00, 0x00, 0x00, 0x00, 0x00, 0x00, 0x00, 0x00, 0x00,
  0x00, 0x00, 0x00, 0x00, 0x00, 0x00, 0x00, 0x00, 0x00, 0x00, 0x00, 0x00,
  0x00, 0x00, 0x00, 0x00, 0x00, 0x00, 0x00, 0x00, 0x00, 0x00, 0x00, 0x00,
  0x00, 0x00, 0x00, 0x00, 0x00, 0x00, 0x00, 0x00, 0x00, 0x00, 0x00, 0x00,
  0x00, 0x00, 0x00, 0x00, 0x00, 0x00, 0x00, 0x00, 0x40, 0x00, 0x00, 0x00,
  0xde, 0x7e, 0x8c, 0x3b, 0xb6, 0x99, 0x2f, 0x3b, 0x67, 0xa0, 0x44, 0x3b,
  0x46, 0xe6, 0x39, 0x3b, 0xfd, 0x7e, 0x1f, 0x3b, 0x88, 0xae, 0xf5, 0x3b,
  0x59, 0xf5, 0x43, 0x3b, 0xe8, 0x44, 0x45, 0x3b, 0x6d, 0xd8, 0x8a, 0x3b,
  0x00, 0xec, 0x36, 0x3b, 0x71, 0x53, 0x80, 0x3b, 0x3f, 0xa8, 0x76, 0x3b,
  0xf2, 0xa3, 0x84, 0x3b, 0x30, 0x57, 0x9e, 0x3b, 0xd2, 0xcd, 0x6c, 0x3b,
  0x73, 0x3e, 0x3f, 0x3b, 0xf0, 0x23, 0x4b, 0x3b, 0xbc, 0x30, 0x5e, 0x3b,
  0x99, 0xe6, 0x7a, 0x3b, 0xf0, 0xa0, 0xa3, 0x3b, 0x0f, 0xbc, 0x3c, 0x3b,
  0xf4, 0x2b, 0x73, 0x3b, 0x3d, 0xf8, 0x45, 0x3b, 0x75, 0xdd, 0x5a, 0x3b,
  0x3c, 0x2c, 0x7f, 0x3b, 0x5b, 0x02, 0x41, 0x3b, 0x3c, 0xb3, 0x88, 0x3b,
  0x15, 0x77, 0x8a, 0x3b, 0xcf, 0x04, 0x57, 0x3b, 0x70, 0x2a, 0xa1, 0x3b,
  0x6a, 0xdb, 0x5b, 0x3b, 0xf2, 0x6f, 0x39, 0x3b, 0x82, 0xb8, 0x40, 0x3b,
  0xe8, 0x6c, 0xa2, 0x3b, 0xb3, 0x75, 0xaf, 0x3b, 0x6a, 0x01, 0x44, 0x3b,
  0x8d, 0xce, 0x54, 0x3b, 0x0b, 0xd2, 0x5e, 0x3b, 0xe0, 0xcc, 0x87, 0x3b,
  0x8c, 0x95, 0x80, 0x3b, 0x8d, 0x1b, 0x3a, 0x3b, 0x74, 0xff, 0xd7, 0x3b,
  0x88, 0xfa, 0x3f, 0x3b, 0x6f, 0x49, 0x40, 0x3b, 0x9f, 0x27, 0x51, 0x3b,
  0x0e, 0xc1, 0x7c, 0x3b, 0x48, 0x06, 0x45, 0x3b, 0xfb, 0xc7, 0x38, 0x3b,
  0x71, 0x0a, 0x0f, 0x3b, 0x59, 0x04, 0x4c, 0x3b, 0xb0, 0xfc, 0x6c, 0x3b,
  0xab, 0xc2, 0x7d, 0x3b, 0xbd, 0x24, 0x95, 0x3b, 0x07, 0x13, 0x65, 0x3b,
  0xae, 0xe1, 0x58, 0x3b, 0x22, 0xb1, 0x7f, 0x3b, 0x77, 0x1b, 0xbe, 0x3b,
  0x82, 0x04, 0x4b, 0x3b, 0x9c, 0x3e, 0x36, 0x3b, 0x35, 0x83, 0x63, 0x3b,
  0x98, 0x6c, 0x26, 0x3b, 0xf1, 0xdb, 0xd8, 0x3b, 0x23, 0x55, 0x84, 0x3b,
  0x72, 0xcc, 0x90, 0x3b, 0x12, 0x00, 0x00, 0x00, 0x74, 0x66, 0x6c, 0x2e,
  0x70, 0x73, 0x65, 0x75, 0x64, 0x6f, 0x5f, 0x71, 0x63, 0x6f, 0x6e, 0x73,
  0x74, 0x35, 0x00, 0x00, 0x02, 0x00, 0x00, 0x00, 0x40, 0x00, 0x00, 0x00,
  0x1e, 0x00, 0x00, 0x00, 0xa6, 0xf8, 0xff, 0xff, 0x00, 0x00, 0x00, 0x01,
  0x14, 0x00, 0x00, 0x00, 0x24, 0x03, 0x00, 0x00, 0x06, 0x00, 0x00, 0x00,
  0x00, 0x00, 0x00, 0x02, 0x30, 0x03, 0x00, 0x00, 0x0c, 0xf8, 0xff, 0xff,
  0x08, 0x00, 0x00, 0x00, 0x08, 0x02, 0x00, 0x00, 0x40, 0x00, 0x00, 0x00,
  0x00, 0x00, 0x00, 0x00, 0x00, 0x00, 0x00, 0x00, 0x00, 0x00, 0x00, 0x00,
  0x00, 0x00, 0x00, 0x00, 0x00, 0x00, 0x00, 0x00, 0x00, 0x00, 0x00, 0x00,
  0x00, 0x00, 0x00, 0x00, 0x00, 0x00, 0x00, 0x00, 0x00, 0x00, 0x00, 0x00,
  0x00, 0x00, 0x00, 0x00, 0x00, 0x00, 0x00, 0x00, 0x00, 0x00, 0x00, 0x00,
  0x00, 0x00, 0x00, 0x00, 0x00, 0x00, 0x00, 0x00, 0x00, 0x00, 0x00, 0x00,
  0x00, 0x00, 0x00, 0x00, 0x00, 0x00, 0x00, 0x00, 0x00, 0x00, 0x00, 0x00,
  0x00, 0x00, 0x00, 0x00, 0x00, 0x00, 0x00, 0x00, 0x00, 0x00, 0x00, 0x00,
  0x00, 0x00, 0x00, 0x00, 0x00, 0x00, 0x00, 0x00, 0x00, 0x00, 0x00, 0x00,
  0x00, 0x00, 0x00, 0x00, 0x00, 0x00, 0x00, 0x00, 0x00, 0x00, 0x00, 0x00,
  0x00, 0x00, 0x00, 0x00, 0x00, 0x00, 0x00, 0x00, 0x00, 0x00, 0x00, 0x00,
  0x00, 0x00, 0x00, 0x00, 0x00, 0x00, 0x00, 0x00, 0x00, 0x00, 0x00, 0x00,
  0x00, 0x00, 0x00, 0x00, 0x00, 0x00, 0x00, 0x00, 0x00, 0x00, 0x00, 0x00,
  0x00, 0x00, 0x00, 0x00, 0x00, 0x00, 0x00, 0x00, 0x00, 0x00, 0x00, 0x00,
  0x00, 0x00, 0x00, 0x00, 0x00, 0x00, 0x00, 0x00, 0x00, 0x00, 0x00, 0x00,
  0x00, 0x00, 0x00, 0x00, 0x00, 0x00, 0x00, 0x00, 0x00, 0x00, 0x00, 0x00,
  0x00, 0x00, 0x00, 0x00, 0x00, 0x00, 0x00, 0x00, 0x00, 0x00, 0x00, 0x00,
  0x00, 0x00, 0x00, 0x00, 0x00, 0x00, 0x00, 0x00, 0x00, 0x00, 0x00, 0x00,
  0x00, 0x00, 0x00, 0x00, 0x00, 0x00, 0x00, 0x00, 0x00, 0x00, 0x00, 0x00,
  0x00, 0x00, 0x00, 0x00, 0x00, 0x00, 0x00, 0x00, 0x00, 0x00, 0x00, 0x00,
  0x00, 0x00, 0x00, 0x00, 0x00, 0x00, 0x00, 0x00, 0x00, 0x00, 0x00, 0x00,
  0x00, 0x00, 0x00, 0x00, 0x00, 0x00, 0x00, 0x00, 0x00, 0x00, 0x00, 0x00,
  0x00, 0x00, 0x00, 0x00, 0x00, 0x00, 0x00, 0x00, 0x00, 0x00, 0x00, 0x00,
  0x00, 0x00, 0x00, 0x00, 0x00, 0x00, 0x00, 0x00, 0x00, 0x00, 0x00, 0x00,
  0x00, 0x00, 0x00, 0x00, 0x00, 0x00, 0x00, 0x00, 0x00, 0x00, 0x00, 0x00,
  0x00, 0x00, 0x00, 0x00, 0x00, 0x00, 0x00, 0x00, 0x00, 0x00, 0x00, 0x00,
  0x00, 0x00, 0x00, 0x00, 0x00, 0x00, 0x00, 0x00, 0x00, 0x00, 0x00, 0x00,
  0x00, 0x00, 0x00, 0x00, 0x00, 0x00, 0x00, 0x00, 0x00, 0x00, 0x00, 0x00,
  0x00, 0x00, 0x00, 0x00, 0x00, 0x00, 0x00, 0x00, 0x00, 0x00, 0x00, 0x00,
  0x00, 0x00, 0x00, 0x00, 0x00, 0x00, 0x00, 0x00, 0x00, 0x00, 0x00, 0x00,
  0x00, 0x00, 0x00, 0x00, 0x00, 0x00, 0x00, 0x00, 0x00, 0x00, 0x00, 0x00,
  0x00, 0x00, 0x00, 0x00, 0x00, 0x00, 0x00, 0x00, 0x00, 0x00, 0x00, 0x00,
  0x00, 0x00, 0x00, 0x00, 0x00, 0x00, 0x00, 0x00, 0x00, 0x00, 0x00, 0x00,
  0x00, 0x00, 0x00, 0x00, 0x00, 0x00, 0x00, 0x00, 0x00, 0x00, 0x00, 0x00,
  0x00, 0x00, 0x00, 0x00, 0x00, 0x00, 0x00, 0x00, 0x00, 0x00, 0x00, 0x00,
  0x00, 0x00, 0x00, 0x00, 0x00, 0x00, 0x00, 0x00, 0x00, 0x00, 0x00, 0x00,
  0x00, 0x00, 0x00, 0x00, 0x00, 0x00, 0x00, 0x00, 0x00, 0x00, 0x00, 0x00,
  0x00, 0x00, 0x00, 0x00, 0x00, 0x00, 0x00, 0x00, 0x00, 0x00, 0x00, 0x00,
  0x00, 0x00, 0x00, 0x00, 0x00, 0x00, 0x00, 0x00, 0x00, 0x00, 0x00, 0x00,
  0x00, 0x00, 0x00, 0x00, 0x00, 0x00, 0x00, 0x00, 0x00, 0x00, 0x00, 0x00,
  0x00, 0x00, 0x00, 0x00, 0x00, 0x00, 0x00, 0x00, 0x00, 0x00, 0x00, 0x00,
  0x00, 0x00, 0x00, 0x00, 0x00, 0x00, 0x00, 0x00, 0x00, 0x00, 0x00, 0x00,
  0x00, 0x00, 0x00, 0x00, 0x00, 0x00, 0x00, 0x00, 0x00, 0x00, 0x00, 0x00,
  0x00, 0x00, 0x00, 0x00, 0x00, 0x00, 0x00, 0x00, 0x40, 0x00, 0x00, 0x00,
  0x16, 0x23, 0x67, 0x39, 0xec, 0x71, 0x10, 0x39, 0x9a, 0xbd, 0x21, 0x39,
  0xb3, 0xea, 0x18, 0x39, 0xa9, 0x32, 0x03, 0x39, 0xa4, 0x17, 0xca, 0x39,
  0xe6, 0x30, 0x21, 0x39, 0xec, 0x44, 0x22, 0x39, 0x1b, 0x6c, 0x64, 0x39,
  0xab, 0x77, 0x16, 0x39, 0xba, 0x1d, 0x53, 0x39, 0x0d, 0xe5, 0x4a, 0x39,
  0xcf, 0x36, 0x5a, 0x39, 0x58, 0x3f, 0x82, 0x39, 0x29, 0xca, 0x42, 0x39,
  0x21, 0x50, 0x1d, 0x39, 0x48, 0x19, 0x27, 0x39, 0xd3, 0xc4, 0x36, 0x39,
  0xa9, 0x62, 0x4e, 0x39, 0xe8, 0x98, 0x86, 0x39, 0xb7, 0x3f, 0x1b, 0x39,
  0x12, 0x07, 0x48, 0x39, 0x6f, 0xd8, 0x22, 0x39, 0x95, 0x08, 0x34, 0x39,
  0x42, 0xe6, 0x51, 0x39, 0xdb, 0xc3, 0x1e, 0x39, 0x9a, 0xe4, 0x60, 0x39,
  0xf6, 0xcb, 0x63, 0x39, 0xa2, 0xde, 0x30, 0x39, 0x45, 0x92, 0x84, 0x39,
  0x7b, 0xd9, 0x34, 0x39, 0x5d, 0x89, 0x18, 0x39, 0x1d, 0x87, 0x1e, 0x39,
  0x87, 0x9b, 0x85, 0x39, 0x4c, 0x54, 0x90, 0x39, 0xd3, 0x3a, 0x21, 0x39,
  0xd8, 0x0c, 0x2f, 0x39, 0x83, 0x49, 0x37, 0x39, 0x9f, 0x69, 0x5f, 0x39,
  0x7b, 0x8a, 0x53, 0x39, 0x86, 0x16, 0x19, 0x39, 0xcf, 0xac, 0xb1, 0x39,
  0xd7, 0xea, 0x1d, 0x39, 0xbf, 0x2b, 0x1e, 0x39, 0xca, 0x0b, 0x2c, 0x39,
  0xf0, 0xe8, 0x4f, 0x39, 0x68, 0x11, 0x22, 0x39, 0x33, 0xff, 0x17, 0x39,
  0x07, 0x53, 0xeb, 0x38, 0xe0, 0xd1, 0x27, 0x39, 0xb6, 0xf0, 0x42, 0x39,
  0xd8, 0xbc, 0x50, 0x39, 0x40, 0x5d, 0x75, 0x39, 0x73, 0x6e, 0x3c, 0x39,
  0xe5, 0x66, 0x32, 0x39, 0x94, 0x53, 0x52, 0x39, 0xc6, 0x60, 0x9c, 0x39,
  0x6d, 0xff, 0x26, 0x39, 0x0b, 0xe9, 0x15, 0x39, 0x90, 0x25, 0x3b, 0x39,
  0x97, 0xe5, 0x08, 0x39, 0x2d, 0x62, 0xb2, 0x39, 0x28, 0xb5, 0x59, 0x39,
  0x5b, 0x37, 0x6e, 0x39, 0x12, 0x00, 0x00, 0x00, 0x74, 0x66, 0x6c, 0x2e,
  0x70, 0x73, 0x65, 0x75, 0x64, 0x6f, 0x5f, 0x71, 0x63, 0x6f, 0x6e, 0x73,
  0x74, 0x34, 0x00, 0x00, 0x01, 0x00, 0x00, 0x00, 0x40, 0x00, 0x00, 0x00,
  0xf6, 0xfb, 0xff, 0xff, 0x00, 0x00, 0x00, 0x01, 0x14, 0x00, 0x00, 0x00,
  0xa8, 0x01, 0x00, 0x00, 0x05, 0x00, 0x00, 0x00, 0x00, 0x00, 0x00, 0x09,
  0xb4, 0x01, 0x00, 0x00, 0x5c, 0xfb, 0xff, 0xff, 0x08, 0x00, 0x00, 0x00,
  0x0c, 0x01, 0x00, 0x00, 0x20, 0x00, 0x00, 0x00, 0x00, 0x00, 0x00, 0x00,
  0x00, 0x00, 0x00, 0x00, 0x00, 0x00, 0x00, 0x00, 0x00, 0x00, 0x00, 0x00,
  0x00, 0x00, 0x00, 0x00, 0x00, 0x00, 0x00, 0x00, 0x00, 0x00, 0x00, 0x00,
  0x00, 0x00, 0x00, 0x00, 0x00, 0x00, 0x00, 0x00, 0x00, 0x00, 0x00, 0x00,
  0x00, 0x00, 0x00, 0x00, 0x00, 0x00, 0x00, 0x00, 0x00, 0x00, 0x00, 0x00,
  0x00, 0x00, 0x00, 0x00, 0x00, 0x00, 0x00, 0x00, 0x00, 0x00, 0x00, 0x00,
  0x00, 0x00, 0x00, 0x00, 0x00, 0x00, 0x00, 0x00, 0x00, 0x00, 0x00, 0x00,
  0x00, 0x00, 0x00, 0x00, 0x00, 0x00, 0x00, 0x00, 0x00, 0x00, 0x00, 0x00,
  0x00, 0x00, 0x00, 0x00, 0x00, 0x00, 0x00, 0x00, 0x00, 0x00, 0x00, 0x00,
  0x00, 0x00, 0x00, 0x00, 0x00, 0x00, 0x00, 0x00, 0x00, 0x00, 0x00, 0x00,
  0x00, 0x00, 0x00, 0x00, 0x00, 0x00, 0x00, 0x00, 0x00, 0x00, 0x00, 0x00,
  0x00, 0x00, 0x00, 0x00, 0x00, 0x00, 0x00, 0x00, 0x00, 0x00, 0x00, 0x00,
  0x00, 0x00, 0x00, 0x00, 0x00, 0x00, 0x00, 0x00, 0x00, 0x00, 0x00, 0x00,
  0x00, 0x00, 0x00, 0x00, 0x00, 0x00, 0x00, 0x00, 0x00, 0x00, 0x00, 0x00,
  0x00, 0x00, 0x00, 0x00, 0x00, 0x00, 0x00, 0x00, 0x00, 0x00, 0x00, 0x00,
  0x00, 0x00, 0x00, 0x00, 0x00, 0x00, 0x00, 0x00, 0x00, 0x00, 0x00, 0x00,
  0x00, 0x00, 0x00, 0x00, 0x00, 0x00, 0x00, 0x00, 0x00, 0x00, 0x00, 0x00,
  0x00, 0x00, 0x00, 0x00, 0x00, 0x00, 0x00, 0x00, 0x00, 0x00, 0x00, 0x00,
  0x00, 0x00, 0x00, 0x00, 0x00, 0x00, 0x00, 0x00, 0x00, 0x00, 0x00, 0x00,
  0x00, 0x00, 0x00, 0x00, 0x00, 0x00, 0x00, 0x00, 0x00, 0x00, 0x00, 0x00,
  0x00, 0x00, 0x00, 0x00, 0x00, 0x00, 0x00, 0x00, 0x00, 0x00, 0x00, 0x00,
  0x00, 0x00, 0x00, 0x00, 0x00, 0x00, 0x00, 0x00, 0x00, 0x00, 0x00, 0x00,
  0x00, 0x00, 0x00, 0x00, 0x20, 0x00, 0x00, 0x00, 0x41, 0x35, 0x57, 0x3b,
  0x45, 0x72, 0x63, 0x3b, 0xed, 0x4a, 0x65, 0x3b, 0xbe, 0xd3, 0x88, 0x3b,
  0x2f, 0xd0, 0x89, 0x3b, 0xff, 0x02, 0x82, 0x3b, 0x10, 0x3c, 0x62, 0x3b,
  0x43, 0x80, 0x85, 0x3b, 0x2f, 0xc1, 0x45, 0x3b, 0x73, 0xf5, 0x70, 0x3b,
  0x54, 0x81, 0x73, 0x3b, 0x5a, 0x81, 0x3e, 0x3b, 0x29, 0xdb, 0x83, 0x3b,
  0xdb, 0xde, 0x72, 0x3b, 0xac, 0x64, 0x73, 0x3b, 0x3f, 0xbd, 0x69, 0x3b,
  0x75, 0x85, 0x81, 0x3b, 0x6f, 0xd6, 0x76, 0x3b, 0x62, 0xe6, 0x7a, 0x3b,
  0xea, 0xea, 0x4c, 0x3b, 0x93, 0xcf, 0x94, 0x3b, 0x54, 0x1c, 0x6f, 0x3b,
  0xf0, 0x75, 0x86, 0x3b, 0x12, 0x60, 0x92, 0x3b, 0x0b, 0xb2, 0x51, 0x3b,
  0xcd, 0x6f, 0x81, 0x3b, 0x2a, 0xb2, 0x5a, 0x3b, 0x1a, 0xe6, 0x80, 0x3b,
  0x65, 0xae, 0x51, 0x3b, 0x6a, 0x31, 0x7e, 0x3b, 0xa0, 0xe0, 0x6b, 0x3b,
  0x56, 0xc2, 0x68, 0x3b, 0x12, 0x00, 0x00, 0x00, 0x74, 0x66, 0x6c, 0x2e,
  0x70, 0x73, 0x65, 0x75, 0x64, 0x6f, 0x5f, 0x71, 0x63, 0x6f, 0x6e, 0x73,
  0x74, 0x33, 0x00, 0x00, 0x02, 0x00, 0x00, 0x00, 0x20, 0x00, 0x00, 0x00,
  0x40, 0x00, 0x00, 0x00, 0xce, 0xfd, 0xff, 0xff, 0x00, 0x00, 0x00, 0x01,
  0x14, 0x00, 0x00, 0x00, 0xa4, 0x01, 0x00, 0x00, 0x04, 0x00, 0x00, 0x00,
  0x00, 0x00, 0x00, 0x02, 0xb0, 0x01, 0x00, 0x00, 0x34, 0xfd, 0xff, 0xff,
  0x08, 0x00, 0x00, 0x00, 0x08, 0x01, 0x00, 0x00, 0x20, 0x00, 0x00, 0x00,
  0x00, 0x00, 0x00, 0x00, 0x00, 0x00, 0x00, 0x00, 0x00, 0x00, 0x00, 0x00,
  0x00, 0x00, 0x00, 0x00, 0x00, 0x00, 0x00, 0x00, 0x00, 0x00, 0x00, 0x00,
  0x00, 0x00, 0x00, 0x00, 0x00, 0x00, 0x00, 0x00, 0x00, 0x00, 0x00, 0x00,
  0x00, 0x00, 0x00, 0x00, 0x00, 0x00, 0x00, 0x00, 0x00, 0x00, 0x00, 0x00,
  0x00, 0x00, 0x00, 0x00, 0x00, 0x00, 0x00, 0x00, 0x00, 0x00, 0x00, 0x00,
  0x00, 0x00, 0x00, 0x00, 0x00, 0x00, 0x00, 0x00, 0x00, 0x00, 0x00, 0x00,
  0x00, 0x00, 0x00, 0x00, 0x00, 0x00, 0x00, 0x00, 0x00, 0x00, 0x00, 0x00,
  0x00, 0x00, 0x00, 0x00, 0x00, 0x00, 0x00, 0x00, 0x00, 0x00, 0x00, 0x00,
  0x00, 0x00, 0x00, 0x00, 0x00, 0x00, 0x00, 0x00, 0x00, 0x00, 0x00, 0x00,
  0x00, 0x00, 0x00, 0x00, 0x00, 0x00, 0x00, 0x00, 0x00, 0x00, 0x00, 0x00,
  0x00, 0x00, 0x00, 0x00, 0x00, 0x00, 0x00, 0x00, 0x00, 0x00, 0x00, 0x00,
  0x00, 0x00, 0x00, 0x00, 0x00, 0x00, 0x00, 0x00, 0x00, 0x00, 0x00, 0x00,
  0x00, 0x00, 0x00, 0x00, 0x00, 0x00, 0x00, 0x00, 0x00, 0x00, 0x00, 0x00,
  0x00, 0x00, 0x00, 0x00, 0x00, 0x00, 0x00, 0x00, 0x00, 0x00, 0x00, 0x00,
  0x00, 0x00, 0x00, 0x00, 0x00, 0x00, 0x00, 0x00, 0x00, 0x00, 0x00, 0x00,
  0x00, 0x00, 0x00, 0x00, 0x00, 0x00, 0x00, 0x00, 0x00, 0x00, 0x00, 0x00,
  0x00, 0x00, 0x00, 0x00, 0x00, 0x00, 0x00, 0x00, 0x00, 0x00, 0x00, 0x00,
  0x00, 0x00, 0x00, 0x00, 0x00, 0x00, 0x00, 0x00, 0x00, 0x00, 0x00, 0x00,
  0x00, 0x00, 0x00, 0x00, 0x00, 0x00, 0x00, 0x00, 0x00, 0x00, 0x00, 0x00,
  0x00, 0x00, 0x00, 0x00, 0x00, 0x00, 0x00, 0x00, 0x00, 0x00, 0x00, 0x00,
  0x00, 0x00, 0x00, 0x00, 0x00, 0x00, 0x00, 0x00, 0x00, 0x00, 0x00, 0x00,
  0x00, 0x00, 0x00, 0x00, 0x20, 0x00, 0x00, 0x00, 0xf2, 0x4e, 0x9b, 0x38,
  0xf0, 0x23, 0xa4, 0x38, 0x0a, 0x79, 0xa5, 0x38, 0xaf, 0x7c, 0xc5, 0x38,
  0x0b, 0xe9, 0xc6, 0x38, 0x70, 0xa6, 0xbb, 0x38, 0x13, 0x44, 0xa3, 0x38,
  0xb7, 0xaf, 0xc0, 0x38, 0x7e, 0xb6, 0x8e, 0x38, 0x50, 0xe4, 0xad, 0x38,
  0xc0, 0xba, 0xaf, 0x38, 0x33, 0x7b, 0x89, 0x38, 0xed, 0x4f, 0xbe, 0x38,
  0x80, 0x45, 0xaf, 0x38, 0x12, 0xa6, 0xaf, 0x38, 0x87, 0xae, 0xa8, 0x38,
  0x3e, 0xf1, 0xba, 0x38, 0x69, 0x22, 0xb2, 0x38, 0xe8, 0x10, 0xb5, 0x38,
  0xd5, 0xe1, 0x93, 0x38, 0x96, 0xc8, 0xd6, 0x38, 0xe0, 0x8e, 0xac, 0x38,
  0x4f, 0x12, 0xc2, 0x38, 0xaa, 0x44, 0xd3, 0x38, 0x86, 0x54, 0x97, 0x38,
  0xfc, 0xd1, 0xba, 0x38, 0x54, 0xd3, 0x9d, 0x38, 0x3d, 0x0b, 0xba, 0x38,
  0xe4, 0x51, 0x97, 0x38, 0x4b, 0x71, 0xb7, 0x38, 0x8d, 0x39, 0xaa, 0x38,
  0x74, 0xf9, 0xa7, 0x38, 0x12, 0x00, 0x00, 0x00, 0x74, 0x66, 0x6c, 0x2e,
  0x70, 0x73, 0x65, 0x75, 0x64, 0x6f, 0x5f, 0x71, 0x63, 0x6f, 0x6e, 0x73,
  0x74, 0x32, 0x00, 0x00, 0x01, 0x00, 0x00, 0x00, 0x20, 0x00, 0x00, 0x00,
  0x9e, 0xff, 0xff, 0xff, 0x00, 0x00, 0x00, 0x01, 0x14, 0x00, 0x00, 0x00,
  0x30, 0x00, 0x00, 0x00, 0x03, 0x00, 0x00, 0x00, 0x00, 0x00, 0x00, 0x09,
  0x3c, 0x00, 0x00, 0x00, 0x04, 0xff, 0xff, 0xff, 0x08, 0x00, 0x00, 0x00,
  0x10, 0x00, 0x00, 0x00, 0x01, 0x00, 0x00, 0x00, 0x00, 0x00, 0x00, 0x00,
  0x00, 0x00, 0x00, 0x00, 0x01, 0x00, 0x00, 0x00, 0xfc, 0x9f, 0xbd, 0x3b,
  0x12, 0x00, 0x00, 0x00, 0x74, 0x66, 0x6c, 0x2e, 0x70, 0x73, 0x65, 0x75,
  0x64, 0x6f, 0x5f, 0x71, 0x63, 0x6f, 0x6e, 0x73, 0x74, 0x31, 0x00, 0x00,
  0x02, 0x00, 0x00, 0x00, 0x01, 0x00, 0x00, 0x00, 0x20, 0x00, 0x00, 0x00,
  0x00, 0x00, 0x16, 0x00, 0x1c, 0x00, 0x18, 0x00, 0x17, 0x00, 0x10, 0x00,
  0x0c, 0x00, 0x08, 0x00, 0x00, 0x00, 0x00, 0x00, 0x00, 0x00, 0x07, 0x00,
  0x16, 0x00, 0x00, 0x00, 0x00, 0x00, 0x00, 0x01, 0x14, 0x00, 0x00, 0x00,
  0x30, 0x00, 0x00, 0x00, 0x02, 0x00, 0x00, 0x00, 0x00, 0x00, 0x00, 0x02,
  0x3c, 0x00, 0x00, 0x00, 0x7c, 0xff, 0xff, 0xff, 0x08, 0x00, 0x00, 0x00,
  0x10, 0x00, 0x00, 0x00, 0x01, 0x00, 0x00, 0x00, 0x00, 0x00, 0x00, 0x00,
  0x00, 0x00, 0x00, 0x00, 0x01, 0x00, 0x00, 0x00, 0x68, 0x7c, 0x75, 0x39,
  0x11, 0x00, 0x00, 0x00, 0x74, 0x66, 0x6c, 0x2e, 0x70, 0x73, 0x65, 0x75,
  0x64, 0x6f, 0x5f, 0x71, 0x63, 0x6f, 0x6e, 0x73, 0x74, 0x00, 0x00, 0x00,
  0x01, 0x00, 0x00, 0x00, 0x01, 0x00, 0x00, 0x00, 0x00, 0x00, 0x16, 0x00,
  0x20, 0x00, 0x1c, 0x00, 0x1b, 0x00, 0x14, 0x00, 0x10, 0x00, 0x0c, 0x00,
  0x00, 0x00, 0x00, 0x00, 0x08, 0x00, 0x07, 0x00, 0x16, 0x00, 0x00, 0x00,
  0x00, 0x00, 0x00, 0x01, 0x18, 0x00, 0x00, 0x00, 0x2c, 0x00, 0x00, 0x00,
  0x48, 0x00, 0x00, 0x00, 0x01, 0x00, 0x00, 0x00, 0x00, 0x00, 0x00, 0x09,
  0x60, 0x00, 0x00, 0x00, 0x02, 0x00, 0x00, 0x00, 0xff, 0xff, 0xff, 0xff,
  0x1e, 0x00, 0x00, 0x00, 0x0c, 0x00, 0x0c, 0x00, 0x00, 0x00, 0x00, 0x00,
  0x08, 0x00, 0x04, 0x00, 0x0c, 0x00, 0x00, 0x00, 0x08, 0x00, 0x00, 0x00,
  0x10, 0x00, 0x00, 0x00, 0x01, 0x00, 0x00, 0x00, 0x0b, 0x00, 0x00, 0x00,
  0x00, 0x00, 0x00, 0x00, 0x01, 0x00, 0x00, 0x00, 0x74, 0x94, 0x52, 0x3d,
  0x1f, 0x00, 0x00, 0x00, 0x73, 0x65, 0x72, 0x76, 0x69, 0x6e, 0x67, 0x5f,
  0x64, 0x65, 0x66, 0x61, 0x75, 0x6c, 0x74, 0x5f, 0x69, 0x6e, 0x70, 0x75,
  0x74, 0x5f, 0x6c, 0x61, 0x79, 0x65, 0x72, 0x5f, 0x33, 0x3a, 0x30, 0x00,
  0x02, 0x00, 0x00, 0x00, 0x01, 0x00, 0x00, 0x00, 0x1e, 0x00, 0x00, 0x00,
  0x02, 0x00, 0x00, 0x00, 0x24, 0x00, 0x00, 0x00, 0x04, 0x00, 0x00, 0x00,
  0xf0, 0xff, 0xff, 0xff, 0x0e, 0x00, 0x00, 0x00, 0x02, 0x00, 0x00, 0x00,
  0x00, 0x00, 0x00, 0x0e, 0x0c, 0x00, 0x10, 0x00, 0x0f, 0x00, 0x00, 0x00,
  0x08, 0x00, 0x04, 0x00, 0x0c, 0x00, 0x00, 0x00, 0x09, 0x00, 0x00, 0x00,
  0x04, 0x00, 0x00, 0x00, 0x00, 0x00, 0x00, 0x09
};
const unsigned int fall_detection_model_tflite_len = 9152;
